{    "version": "1.0",    "truncation": null,    "padding": null,    "added_tokens": [        {            "id": 0,            "special": true,            "content": "[STOP]",            "single_word": false,            "lstrip": false,            "rstrip": false,            "normalized": false        },        {            "id": 1,            "special": true,            "content": "[UNK]",            "single_word": false,            "lstrip": false,            "rstrip": false,            "normalized": false        },        {            "id": 2,            "special": true,            "content": "[SPACE]",            "single_word": false,            "lstrip": false,            "rstrip": false,            "normalized": false        },        {            "id": 259,            "special": true,            "content": "[en]",            "single_word": false,            "lstrip": false,            "rstrip": false,            "normalized": false        },        {            "id": 260,            "special": true,            "content": "[de]",            "single_word": false,            "lstrip": false,            "rstrip": false,            "normalized": false        },        {            "id": 261,            "special": true,            "content": "[START]",            "single_word": false,            "lstrip": false,            "rstrip": false,            "normalized": false        },        {            "id": 262,            "special": true,            "content": "[fr]",            "single_word": false,            "lstrip": false,            "rstrip": false,            "normalized": false        },        {            "id": 284,            "special": true,            "content": "[es]",            "single_word": false,            "lstrip": false,            "rstrip": false,            "normalized": false        },        {            "id": 285,            "special": true,            "content": "[it]",            "single_word": false,            "lstrip": false,            "rstrip": false,            "normalized": false        },        {            "id": 286,            "special": true,            "content": "[pt]",            "single_word": false,            "lstrip": false,            "rstrip": false,            "normalized": false        },        {            "id": 294,            "special": true,            "content": "[pl]",            "single_word": false,            "lstrip": false,            "rstrip": false,            "normalized": false        },        {            "id": 295,            "special": true,            "content": "[tr]",            "single_word": false,            "lstrip": false,            "rstrip": false,            "normalized": false        },        {            "id": 267,            "special": true,            "content": "[ru]",            "single_word": false,            "lstrip": false,            "rstrip": false,            "normalized": false        },        {            "id": 293,            "special": true,            "content": "[cs]",            "single_word": false,            "lstrip": false,            "rstrip": false,            "normalized": false        },        {            "id": 297,            "special": true,            "content": "[nl]",            "single_word": false,            "lstrip": false,            "rstrip": false,            "normalized": false        },        {            "id": 5022,            "special": true,            "content": "[ar]",            "single_word": false,            "lstrip": false,            "rstrip": false,            "normalized": false        },        {            "id": 5023,            "special": true,            "content": "[zh-cn]",            "single_word": false,            "lstrip": false,            "rstrip": false,            "normalized": false        },        {            "id": 5412,            "special": true,            "content": "[ja]",            "single_word": false,            "lstrip": false,            "rstrip": false,            "normalized": false        },        {            "id": 5753,            "special": true,            "content": "[hu]",            "single_word": false,            "lstrip": false,            "rstrip": false,            "normalized": false        },        {            "id": 6152,            "special": true,            "content": "[ko]",            "single_word": false,            "lstrip": false,            "rstrip": false,            "normalized": false        },        {            "id": 6680,            "special": true,            "content": "[hi]",            "single_word": false,            "lstrip": false,            "rstrip": false,            "normalized": false        }    ],    "normalizer": null,    "pre_tokenizer": {        "type": "Whitespace"    },    "post_processor": null,    "decoder": null,    "model": {        "type": "BPE",        "dropout": null,        "unk_token": "[UNK]",        "continuing_subword_prefix": null,        "end_of_word_suffix": null,        "fuse_unk": false,        "vocab": {            "[STOP]": 0,            "[UNK]": 1,            "[SPACE]": 2,            "!": 3,            "'": 4,            "(": 5,            ")": 6,            ",": 7,            "-": 8,            ".": 9,            "/": 10,            ":": 11,            ";": 12,            "?": 13,            "a": 14,            "b": 15,            "c": 16,            "d": 17,            "e": 18,            "f": 19,            "g": 20,            "h": 21,            "i": 22,            "j": 23,            "k": 24,            "l": 25,            "m": 26,            "n": 27,            "o": 28,            "p": 29,            "q": 30,            "r": 31,            "s": 32,            "t": 33,            "u": 34,            "v": 35,            "w": 36,            "x": 37,            "y": 38,            "z": 39,            "th": 40,            "in": 41,            "the": 42,            "an": 43,            "er": 44,            "ou": 45,            "re": 46,            "on": 47,            "at": 48,            "ed": 49,            "en": 50,            "to": 51,            "ing": 52,            "and": 53,            "is": 54,            "as": 55,            "al": 56,            "or": 57,            "of": 58,            "ar": 59,            "it": 60,            "es": 61,            "he": 62,            "st": 63,            "le": 64,            "om": 65,            "se": 66,            "be": 67,            "ad": 68,            "ow": 69,            "ly": 70,            "ch": 71,            "wh": 72,            "that": 73,            "you": 74,            "li": 75,            "ve": 76,            "ac": 77,            "ti": 78,            "ld": 79,            "me": 80,            "was": 81,            "gh": 82,            "id": 83,            "ll": 84,            "wi": 85,            "ent": 86,            "for": 87,            "ay": 88,            "ro": 89,            "ver": 90,            "ic": 91,            "her": 92,            "ke": 93,            "his": 94,            "no": 95,            "ut": 96,            "un": 97,            "ir": 98,            "lo": 99,            "we": 100,            "ri": 101,            "ha": 102,            "with": 103,            "ght": 104,            "out": 105,            "im": 106,            "ion": 107,            "all": 108,            "ab": 109,            "one": 110,            "ne": 111,            "ge": 112,            "ould": 113,            "ter": 114,            "mo": 115,            "had": 116,            "ce": 117,            "she": 118,            "go": 119,            "sh": 120,            "ur": 121,            "am": 122,            "so": 123,            "pe": 124,            "my": 125,            "de": 126,            "are": 127,            "but": 128,            "ome": 129,            "fr": 130,            "ther": 131,            "fe": 132,            "su": 133,            "do": 134,            "con": 135,            "te": 136,            "ain": 137,            "ere": 138,            "po": 139,            "if": 140,            "they": 141,            "us": 142,            "ag": 143,            "tr": 144,            "now": 145,            "oun": 146,            "this": 147,            "have": 148,            "not": 149,            "sa": 150,            "il": 151,            "up": 152,            "thing": 153,            "from": 154,            "ap": 155,            "him": 156,            "ack": 157,            "ation": 158,            "ant": 159,            "our": 160,            "op": 161,            "like": 162,            "ust": 163,            "ess": 164,            "bo": 165,            "ok": 166,            "ul": 167,            "ind": 168,            "ex": 169,            "com": 170,            "some": 171,            "there": 172,            "ers": 173,            "co": 174,            "res": 175,            "man": 176,            "ard": 177,            "pl": 178,            "wor": 179,            "way": 180,            "tion": 181,            "fo": 182,            "ca": 183,            "were": 184,            "by": 185,            "ate": 186,            "pro": 187,            "ted": 188,            "ound": 189,            "own": 190,            "would": 191,            "ts": 192,            "what": 193,            "qu": 194,            "ally": 195,            "ight": 196,            "ck": 197,            "gr": 198,            "when": 199,            "ven": 200,            "can": 201,            "ough": 202,            "ine": 203,            "end": 204,            "per": 205,            "ous": 206,            "od": 207,            "ide": 208,            "know": 209,            "ty": 210,            "very": 211,            "si": 212,            "ak": 213,            "who": 214,            "about": 215,            "ill": 216,            "them": 217,            "est": 218,            "red": 219,            "ye": 220,            "could": 221,            "ong": 222,            "your": 223,            "their": 224,            "em": 225,            "just": 226,            "other": 227,            "into": 228,            "any": 229,            "whi": 230,            "um": 231,            "tw": 232,            "ast": 233,            "der": 234,            "did": 235,            "ie": 236,            "been": 237,            "ace": 238,            "ink": 239,            "ity": 240,            "back": 241,            "ting": 242,            "br": 243,            "more": 244,            "ake": 245,            "pp": 246,            "then": 247,            "sp": 248,            "el": 249,            "use": 250,            "bl": 251,            "said": 252,            "over": 253,            "get": 254,            "ÃŸ": 255,            "Ã¤": 256,            "Ã¶": 257,            "Ã¼": 258,            "[en]": 259,            "[de]": 260,            "[START]": 261,            "[fr]": 262,            "Å“": 263,            "Ã¯": 264,            "Ãª": 265,            "Ã¢": 266,            "[ru]": 267,            "Ã¿": 268,            "Ã¨": 269,            "Ã ": 270,            "Ã«": 271,            "Ã¹": 272,            "Ã®": 273,            "Ã§": 274,            "Ã¦": 275,            "Ã´": 276,            "Ã»": 277,            "Ã¡": 278,            "Ã©": 279,            "Ã­": 280,            "Ã³": 281,            "Ãº": 282,            "Ã±": 283,            "[es]": 284,            "[it]": 285,            "[pt]": 286,            "Å„": 287,            "Å›": 288,            "Ä™": 289,            "Ä…": 290,            "Å¼": 291,            "Ä‡": 292,            "[cs]": 293,            "[pl]": 294,            "[tr]": 295,            "Ã£": 296,            "[nl]": 297,            "ÅŸ": 298,            "ÄŸ": 299,            "Ä±": 300,            "Ã²": 301,            "Ã¬": 302,            "Â¿": 303,            "â€¦": 304,            "iÌ‡": 305,            "Ãµ": 306,            "\"": 307,            "Â´": 308,            "Ã¸": 309,            "Ä": 310,            "Å": 311,            "Å¡": 312,            "Å¾": 313,            "Ì‡": 314,            "ei": 315,            "ich": 316,            "ein": 317,            "au": 318,            "sch": 319,            "und": 320,            "die": 321,            "da": 322,            "den": 323,            "gen": 324,            "zu": 325,            "hr": 326,            "ten": 327,            "mi": 328,            "sie": 329,            "das": 330,            "eine": 331,            "icht": 332,            "ber": 333,            "ach": 334,            "auf": 335,            "lich": 336,            "nicht": 337,            "mm": 338,            "ben": 339,            "war": 340,            "mit": 341,            "sich": 342,            "ig": 343,            "aus": 344,            "ist": 345,            "wie": 346,            "och": 347,            "ung": 348,            "ann": 349,            "Ã¼r": 350,            "hn": 351,            "ihr": 352,            "sen": 353,            "tz": 354,            "dem": 355,            "eit": 356,            "hat": 357,            "wir": 358,            "von": 359,            "wei": 360,            "ier": 361,            "ra": 362,            "einen": 363,            "vor": 364,            "als": 365,            "wo": 366,            "rei": 367,            "ste": 368,            "lie": 369,            "auch": 370,            "du": 371,            "des": 372,            "ko": 373,            "Ã¼ber": 374,            "bei": 375,            "hen": 376,            "hm": 377,            "lei": 378,            "aber": 379,            "wen": 380,            "hl": 381,            "ger": 382,            "nach": 383,            "ft": 384,            "imm": 385,            "je": 386,            "schen": 387,            "wer": 388,            "ser": 389,            "Ã¤n": 390,            "sein": 391,            "ol": 392,            "cht": 393,            "fÃ¼r": 394,            "kl": 395,            "ff": 396,            "einem": 397,            "nen": 398,            "ja": 399,            "noch": 400,            "hatte": 401,            "pf": 402,            "hin": 403,            "di": 404,            "chen": 405,            "rÃ¼": 406,            "iel": 407,            "sel": 408,            "dass": 409,            "ihn": 410,            "mir": 411,            "schl": 412,            "Ã¶n": 413,            "gan": 414,            "gt": 415,            "einer": 416,            "sten": 417,            "mich": 418,            "wenn": 419,            "ell": 420,            "gte": 421,            "mal": 422,            "gel": 423,            "ken": 424,            "nur": 425,            "mmen": 426,            "fÃ¼": 427,            "ern": 428,            "Ã¶r": 429,            "unter": 430,            "ander": 431,            "dur": 432,            "uch": 433,            "ta": 434,            "men": 435,            "mach": 436,            "doch": 437,            "durch": 438,            "os": 439,            "gl": 440,            "hal": 441,            "ihre": 442,            "wÃ¤": 443,            "immer": 444,            "ihm": 445,            "kann": 446,            "ort": 447,            "dann": 448,            "lan": 449,            "tzt": 450,            "oder": 451,            "hren": 452,            "et": 453,            "kÃ¶n": 454,            "ick": 455,            "fa": 456,            "wieder": 457,            "daÃŸ": 458,            "mein": 459,            "fen": 460,            "ganz": 461,            "diese": 462,            "ster": 463,            "dar": 464,            "wa": 465,            "ges": 466,            "na": 467,            "fl": 468,            "igen": 469,            "sche": 470,            "ungen": 471,            "mehr": 472,            "ÃŸen": 473,            "ot": 474,            "kon": 475,            "gew": 476,            "haben": 477,            "geh": 478,            "Ã¤t": 479,            "sind": 480,            "dr": 481,            "wel": 482,            "uns": 483,            "vo": 484,            "ma": 485,            "ute": 486,            "schon": 487,            "bes": 488,            "gesch": 489,            "bt": 490,            "che": 491,            "son": 492,            "ob": 493,            "la": 494,            "rÃ¼ck": 495,            "seine": 496,            "kr": 497,            "fre": 498,            "eil": 499,            "zum": 500,            "hier": 501,            "kt": 502,            "ige": 503,            "spr": 504,            "leben": 505,            "bst": 506,            "zeit": 507,            "gro": 508,            "denn": 509,            "ho": 510,            "scha": 511,            "bar": 512,            "alle": 513,            "gegen": 514,            "wÃ¼r": 515,            "mÃ¼": 516,            "ze": 517,            "werden": 518,            "jetzt": 519,            "kommen": 520,            "nie": 521,            "sei": 522,            "heit": 523,            "soll": 524,            "glei": 525,            "meine": 526,            "woll": 527,            "ner": 528,            "habe": 529,            "wur": 530,            "lichen": 531,            "assen": 532,            "nte": 533,            "sehen": 534,            "wird": 535,            "bis": 536,            "gar": 537,            "ien": 538,            "mus": 539,            "uÃŸ": 540,            "Ã¤r": 541,            "stell": 542,            "keit": 543,            "zwei": 544,            "selbst": 545,            "sta": 546,            "pa": 547,            "sagte": 548,            "tet": 549,            "kam": 550,            "ssen": 551,            "viel": 552,            "ug": 553,            "zen": 554,            "hei": 555,            "mann": 556,            "will": 557,            "geb": 558,            "waren": 559,            "Ã¼ck": 560,            "Ã¤ch": 561,            "mer": 562,            "ru": 563,            "hau": 564,            "eigen": 565,            "ang": 566,            "weg": 567,            "blick": 568,            "fra": 569,            "alles": 570,            "ka": 571,            "augen": 572,            "fin": 573,            "liche": 574,            "unser": 575,            "dern": 576,            "herr": 577,            "nun": 578,            "vie": 579,            "chte": 580,            "wohl": 581,            "fall": 582,            "ht": 583,            "Ã¼n": 584,            "etwas": 585,            "stand": 586,            "Ã¤u": 587,            "mÃ¶": 588,            "tel": 589,            "rie": 590,            "dich": 591,            "dies": 592,            "hand": 593,            "bin": 594,            "ffen": 595,            "nichts": 596,            "dan": 597,            "hne": 598,            "ihnen": 599,            "esen": 600,            "dieser": 601,            "frau": 602,            "art": 603,            "dir": 604,            "isch": 605,            "erst": 606,            "gleich": 607,            "komm": 608,            "hÃ¶r": 609,            "ÃŸe": 610,            "dig": 611,            "sehr": 612,            "zei": 613,            "sam": 614,            "aum": 615,            "hÃ¤t": 616,            "ingen": 617,            "gut": 618,            "mut": 619,            "cken": 620,            "konnte": 621,            "stimm": 622,            "zur": 623,            "itz": 624,            "weil": 625,            "wÃ¼rde": 626,            "fÃ¤": 627,            "kÃ¶nnen": 628,            "keine": 629,            "fer": 630,            "ischen": 631,            "voll": 632,            "eines": 633,            "setz": 634,            "zie": 635,            "del": 636,            "tete": 637,            "seiner": 638,            "ieren": 639,            "gest": 640,            "zurÃ¼ck": 641,            "wurde": 642,            "schn": 643,            "pr": 644,            "lieÃŸ": 645,            "tra": 646,            "mÃ¤": 647,            "gend": 648,            "fol": 649,            "ik": 650,            "schla": 651,            "schaft": 652,            "ater": 653,            "weiÃŸ": 654,            "seinen": 655,            "lassen": 656,            "lu": 657,            "unden": 658,            "teil": 659,            "neu": 660,            "iert": 661,            "menschen": 662,            "hmen": 663,            "str": 664,            "gi": 665,            "sah": 666,            "ihren": 667,            "eln": 668,            "weiter": 669,            "gehen": 670,            "iger": 671,            "macht": 672,            "tag": 673,            "also": 674,            "halten": 675,            "nis": 676,            "acht": 677,            "geben": 678,            "og": 679,            "nat": 680,            "mar": 681,            "det": 682,            "ohne": 683,            "haus": 684,            "tro": 685,            "ange": 686,            "lau": 687,            "spiel": 688,            "tre": 689,            "schr": 690,            "inn": 691,            "los": 692,            "machen": 693,            "hÃ¤tte": 694,            "beg": 695,            "wirk": 696,            "alt": 697,            "glich": 698,            "tes": 699,            "richt": 700,            "freund": 701,            "ihrer": 702,            "fel": 703,            "bel": 704,            "sol": 705,            "einmal": 706,            "eben": 707,            "hol": 708,            "hÃ¤n": 709,            "tern": 710,            "hÃ¶": 711,            "schw": 712,            "recht": 713,            "wahr": 714,            "seinem": 715,            "stehen": 716,            "hlen": 717,            "ins": 718,            "ging": 719,            "wollte": 720,            "wissen": 721,            "ungs": 722,            "ald": 723,            "ass": 724,            "jahr": 725,            "mor": 726,            "welt": 727,            "under": 728,            "zusa": 729,            "kopf": 730,            "lang": 731,            "hinter": 732,            "atz": 733,            "stra": 734,            "angen": 735,            "ank": 736,            "ade": 737,            "glau": 738,            "fach": 739,            "hatten": 740,            "fort": 741,            "eicht": 742,            "iff": 743,            "ler": 744,            "mei": 745,            "diesem": 746,            "kein": 747,            "frei": 748,            "fÃ¼hr": 749,            "vom": 750,            "Î²": 751,            "ai": 752,            "ait": 753,            "que": 754,            "les": 755,            "av": 756,            "ais": 757,            "oi": 758,            "eu": 759,            "lle": 760,            "par": 761,            "ans": 762,            "ment": 763,            "Ã©t": 764,            "une": 765,            "pas": 766,            "qui": 767,            "elle": 768,            "dÃ©": 769,            "pour": 770,            "dans": 771,            "rÃ©": 772,            "tou": 773,            "vous": 774,            "vi": 775,            "ouv": 776,            "mon": 777,            "sur": 778,            "ci": 779,            "plu": 780,            "Ã¨re": 781,            "mais": 782,            "ois": 783,            "plus": 784,            "Ã©e": 785,            "aient": 786,            "mp": 787,            "lui": 788,            "ave": 789,            "Ã©tait": 790,            "ses": 791,            "tout": 792,            "oir": 793,            "avait": 794,            "Ã©s": 795,            "mes": 796,            "nous": 797,            "eux": 798,            "bi": 799,            "ons": 800,            "pu": 801,            "ces": 802,            "tu": 803,            "leur": 804,            "don": 805,            "eur": 806,            "ette": 807,            "aire": 808,            "avec": 809,            "dit": 810,            "tÃ©": 811,            "ille": 812,            "comme": 813,            "cr": 814,            "ux": 815,            "Ã¨s": 816,            "aux": 817,            "jour": 818,            "ils": 819,            "bien": 820,            "cou": 821,            "quel": 822,            "peu": 823,            "cette": 824,            "cu": 825,            "mÃª": 826,            "fait": 827,            "gu": 828,            "Ãªtre": 829,            "itÃ©": 830,            "ens": 831,            "ni": 832,            "lÃ©": 833,            "dis": 834,            "ble": 835,            "nÃ©": 836,            "puis": 837,            "mÃªme": 838,            "ques": 839,            "fi": 840,            "age": 841,            "moi": 842,            "ence": 843,            "ont": 844,            "main": 845,            "ors": 846,            "aut": 847,            "ance": 848,            "mÃ©": 849,            "sans": 850,            "sÃ©": 851,            "lon": 852,            "hom": 853,            "car": 854,            "able": 855,            "cher": 856,            "deux": 857,            "enf": 858,            "oÃ¹": 859,            "ph": 860,            "ure": 861,            "temp": 862,            "pos": 863,            "rent": 864,            "pÃ©": 865,            "faire": 866,            "pi": 867,            "tres": 868,            "Ã§a": 869,            "endre": 870,            "bon": 871,            "sou": 872,            "int": 873,            "prÃ©": 874,            "sent": 875,            "tant": 876,            "cer": 877,            "lÃ ": 878,            "lais": 879,            "prÃ¨s": 880,            "bre": 881,            "cour": 882,            "pet": 883,            "comp": 884,            "lait": 885,            "trouv": 886,            "entre": 887,            "sont": 888,            "dev": 889,            "nu": 890,            "temps": 891,            "dou": 892,            "rait": 893,            "bou": 894,            "quand": 895,            "jours": 896,            "avoir": 897,            "Ã©tÃ©": 898,            "ale": 899,            "pre": 900,            "fois": 901,            "orte": 902,            "vÃ©": 903,            "non": 904,            "tous": 905,            "jus": 906,            "coup": 907,            "homme": 908,            "Ãªte": 909,            "aussi": 910,            "urs": 911,            "seu": 912,            "ord": 913,            "min": 914,            "gÃ©": 915,            "core": 916,            "va": 917,            "vre": 918,            "encore": 919,            "sem": 920,            "ite": 921,            "autre": 922,            "pris": 923,            "peut": 924,            "ue": 925,            "ante": 926,            "gn": 927,            "rÃ©p": 928,            "hu": 929,            "sion": 930,            "votre": 931,            "dire": 932,            "ez": 933,            "fem": 934,            "leurs": 935,            "met": 936,            "cri": 937,            "mis": 938,            "tour": 939,            "rai": 940,            "jam": 941,            "regar": 942,            "rien": 943,            "vers": 944,            "suis": 945,            "pouv": 946,            "vis": 947,            "grand": 948,            "ants": 949,            "cor": 950,            "rer": 951,            "cÃ©": 952,            "tent": 953,            "pres": 954,            "vou": 955,            "alors": 956,            "sieur": 957,            "aine": 958,            "quoi": 959,            "fon": 960,            "endant": 961,            "arri": 962,            "eure": 963,            "aprÃ¨s": 964,            "donc": 965,            "itu": 966,            "lÃ¨": 967,            "sait": 968,            "toi": 969,            "cha": 970,            "ail": 971,            "asse": 972,            "imp": 973,            "voy": 974,            "conn": 975,            "pla": 976,            "petit": 977,            "avant": 978,            "nom": 979,            "tin": 980,            "dont": 981,            "sous": 982,            "emp": 983,            "person": 984,            "elles": 985,            "beau": 986,            "parti": 987,            "cho": 988,            "prit": 989,            "toujours": 990,            "rais": 991,            "jamais": 992,            "trav": 993,            "tions": 994,            "trÃ¨s": 995,            "voi": 996,            "ren": 997,            "yeux": 998,            "voir": 999,            "premi": 1000,            "gne": 1001,            "heure": 1002,            "rou": 1003,            "eff": 1004,            "notre": 1005,            "ments": 1006,            "ton": 1007,            "fais": 1008,            "cela": 1009,            "rÃ©pon": 1010,            "cons": 1011,            "air": 1012,            "Ã´t": 1013,            "pendant": 1014,            "ici": 1015,            "toute": 1016,            "jet": 1017,            "port": 1018,            "Ã©taient": 1019,            "pen": 1020,            "hÃ©": 1021,            "autres": 1022,            "pÃ¨re": 1023,            "oc": 1024,            "quelques": 1025,            "ique": 1026,            "lis": 1027,            "femme": 1028,            "jou": 1029,            "teur": 1030,            "monde": 1031,            "nes": 1032,            "dre": 1033,            "aff": 1034,            "rap": 1035,            "part": 1036,            "lement": 1037,            "cla": 1038,            "fut": 1039,            "quelque": 1040,            "prendre": 1041,            "rÃª": 1042,            "aille": 1043,            "sais": 1044,            "ches": 1045,            "let": 1046,            "char": 1047,            "Ã¨res": 1048,            "ents": 1049,            "moins": 1050,            "eau": 1051,            "aÃ®": 1052,            "jeu": 1053,            "heur": 1054,            "Ã©es": 1055,            "tri": 1056,            "point": 1057,            "mom": 1058,            "vent": 1059,            "nouv": 1060,            "gran": 1061,            "trois": 1062,            "sant": 1063,            "toutes": 1064,            "contre": 1065,            "Ã¨rent": 1066,            "chez": 1067,            "avez": 1068,            "Ã»t": 1069,            "att": 1070,            "pau": 1071,            "porte": 1072,            "ouver": 1073,            "lit": 1074,            "prÃ©s": 1075,            "chose": 1076,            "vit": 1077,            "monsieur": 1078,            "hab": 1079,            "tÃªte": 1080,            "ju": 1081,            "tement": 1082,            "ction": 1083,            "vrai": 1084,            "lar": 1085,            "cet": 1086,            "regard": 1087,            "lant": 1088,            "som": 1089,            "moment": 1090,            "illes": 1091,            "ple": 1092,            "ps": 1093,            "mÃ¨re": 1094,            "cl": 1095,            "sour": 1096,            "ys": 1097,            "trop": 1098,            "enne": 1099,            "jusqu": 1100,            "avaient": 1101,            "avais": 1102,            "jeune": 1103,            "depuis": 1104,            "personne": 1105,            "fit": 1106,            "cert": 1107,            "jo": 1108,            "oui": 1109,            "rest": 1110,            "semb": 1111,            "cap": 1112,            "mat": 1113,            "mu": 1114,            "long": 1115,            "fran": 1116,            "faut": 1117,            "iti": 1118,            "bli": 1119,            "chev": 1120,            "pri": 1121,            "ente": 1122,            "ainsi": 1123,            "cham": 1124,            "lors": 1125,            "cas": 1126,            "ili": 1127,            "bÃ©": 1128,            "nos": 1129,            "sui": 1130,            "rit": 1131,            "cro": 1132,            "gue": 1133,            "Ã­a": 1134,            "por": 1135,            "las": 1136,            "Ã³n": 1137,            "una": 1138,            "aba": 1139,            "dos": 1140,            "era": 1141,            "mb": 1142,            "para": 1143,            "Ã¡s": 1144,            "mos": 1145,            "ando": 1146,            "como": 1147,            "mÃ¡s": 1148,            "ciÃ³n": 1149,            "tan": 1150,            "dad": 1151,            "ado": 1152,            "fu": 1153,            "cia": 1154,            "mente": 1155,            "sus": 1156,            "tar": 1157,            "za": 1158,            "ba": 1159,            "pero": 1160,            "sin": 1161,            "lla": 1162,            "Ã¡n": 1163,            "ia": 1164,            "ran": 1165,            "ga": 1166,            "yo": 1167,            "tos": 1168,            "cos": 1169,            "ya": 1170,            "ones": 1171,            "habÃ­a": 1172,            "hi": 1173,            "esta": 1174,            "mas": 1175,            "tor": 1176,            "aban": 1177,            "dor": 1178,            "Ã­an": 1179,            "tas": 1180,            "Ã©n": 1181,            "endo": 1182,            "aque": 1183,            "ero": 1184,            "io": 1185,            "quÃ©": 1186,            "cab": 1187,            "tal": 1188,            "seÃ±": 1189,            "ora": 1190,            "todo": 1191,            "sal": 1192,            "cuando": 1193,            "gun": 1194,            "bu": 1195,            "ras": 1196,            "esto": 1197,            "pare": 1198,            "Ã©l": 1199,            "tras": 1200,            "jos": 1201,            "mien": 1202,            "pue": 1203,            "cre": 1204,            "pon": 1205,            "dÃ­a": 1206,            "tros": 1207,            "sab": 1208,            "sobre": 1209,            "ese": 1210,            "mbre": 1211,            "eron": 1212,            "aÃ±": 1213,            "ido": 1214,            "porque": 1215,            "ella": 1216,            "cen": 1217,            "muy": 1218,            "cal": 1219,            "este": 1220,            "has": 1221,            "cÃ³": 1222,            "gra": 1223,            "ros": 1224,            "aquel": 1225,            "dijo": 1226,            "cÃ­a": 1227,            "zo": 1228,            "ciones": 1229,            "mbi": 1230,            "elo": 1231,            "tÃ³": 1232,            "ina": 1233,            "todos": 1234,            "tien": 1235,            "estaba": 1236,            "deci": 1237,            "cio": 1238,            "Ã±o": 1239,            "lor": 1240,            "nues": 1241,            "medi": 1242,            "len": 1243,            "vida": 1244,            "ali": 1245,            "pues": 1246,            "ales": 1247,            "vol": 1248,            "mÃ­": 1249,            "rar": 1250,            "cion": 1251,            "hasta": 1252,            "seÃ±or": 1253,            "cono": 1254,            "ah": 1255,            "dios": 1256,            "esa": 1257,            "Ãºn": 1258,            "var": 1259,            "san": 1260,            "gui": 1261,            "otros": 1262,            "tado": 1263,            "buen": 1264,            "Ã±a": 1265,            "tiemp": 1266,            "hacer": 1267,            "jer": 1268,            "vu": 1269,            "ana": 1270,            "asÃ­": 1271,            "antes": 1272,            "vez": 1273,            "miento": 1274,            "jar": 1275,            "lab": 1276,            "casa": 1277,            "eso": 1278,            "ego": 1279,            "diÃ³": 1280,            "estÃ¡": 1281,            "encia": 1282,            "eli": 1283,            "Ã­as": 1284,            "tiempo": 1285,            "zar": 1286,            "van": 1287,            "mun": 1288,            "erta": 1289,            "tambi": 1290,            "sÃ­": 1291,            "aun": 1292,            "mismo": 1293,            "entes": 1294,            "mano": 1295,            "ele": 1296,            "nada": 1297,            "segu": 1298,            "mej": 1299,            "erra": 1300,            "tir": 1301,            "uno": 1302,            "donde": 1303,            "toda": 1304,            "desde": 1305,            "tambiÃ©n": 1306,            "cuer": 1307,            "hombre": 1308,            "otro": 1309,            "lib": 1310,            "trar": 1311,            "cual": 1312,            "hay": 1313,            "cada": 1314,            "taba": 1315,            "mento": 1316,            "tenÃ­a": 1317,            "quer": 1318,            "eran": 1319,            "siemp": 1320,            "siempre": 1321,            "erto": 1322,            "quÃ­": 1323,            "gos": 1324,            "puÃ©s": 1325,            "ellos": 1326,            "despuÃ©s": 1327,            "nue": 1328,            "llo": 1329,            "inter": 1330,            "cÃ³mo": 1331,            "ahora": 1332,            "uste": 1333,            "traba": 1334,            "lado": 1335,            "ino": 1336,            "poco": 1337,            "erte": 1338,            "mujer": 1339,            "quier": 1340,            "algun": 1341,            "fue": 1342,            "ojos": 1343,            "enton": 1344,            "vos": 1345,            "esper": 1346,            "much": 1347,            "otra": 1348,            "az": 1349,            "eza": 1350,            "aquÃ­": 1351,            "cias": 1352,            "gua": 1353,            "mucho": 1354,            "decir": 1355,            "esti": 1356,            "idad": 1357,            "algo": 1358,            "ocu": 1359,            "entonces": 1360,            "dido": 1361,            "entos": 1362,            "gri": 1363,            "dado": 1364,            "ios": 1365,            "dose": 1366,            "usted": 1367,            "quien": 1368,            "ami": 1369,            "unto": 1370,            "mejor": 1371,            "bas": 1372,            "solo": 1373,            "pregun": 1374,            "tur": 1375,            "alg": 1376,            "todas": 1377,            "parte": 1378,            "emb": 1379,            "cto": 1380,            "mundo": 1381,            "tiene": 1382,            "tante": 1383,            "palab": 1384,            "tran": 1385,            "aquella": 1386,            "cios": 1387,            "aunque": 1388,            "cuen": 1389,            "tener": 1390,            "fun": 1391,            "respon": 1392,            "allÃ­": 1393,            "xi": 1394,            "han": 1395,            "pens": 1396,            "contra": 1397,            "tura": 1398,            "val": 1399,            "dio": 1400,            "tanto": 1401,            "camin": 1402,            "mÃ³": 1403,            "esp": 1404,            "ada": 1405,            "Ã­o": 1406,            "hacia": 1407,            "dej": 1408,            "estar": 1409,            "iÃ³n": 1410,            "gas": 1411,            "vas": 1412,            "noche": 1413,            "Ã©r": 1414,            "aÃ±os": 1415,            "padre": 1416,            "gus": 1417,            "Ã¡r": 1418,            "sino": 1419,            "manos": 1420,            "cido": 1421,            "estu": 1422,            "hubi": 1423,            "vir": 1424,            "bri": 1425,            "raz": 1426,            "chi": 1427,            "puede": 1428,            "menos": 1429,            "habi": 1430,            "homb": 1431,            "neces": 1432,            "may": 1433,            "eros": 1434,            "rÃ­a": 1435,            "hecho": 1436,            "escu": 1437,            "lti": 1438,            "Ã¡ndo": 1439,            "bus": 1440,            "cosas": 1441,            "tÃº": 1442,            "espa": 1443,            "reci": 1444,            "ctor": 1445,            "prim": 1446,            "dia": 1447,            "dese": 1448,            "mientras": 1449,            "hor": 1450,            "fuer": 1451,            "ida": 1452,            "posi": 1453,            "lante": 1454,            "ano": 1455,            "estas": 1456,            "pli": 1457,            "luego": 1458,            "siÃ³n": 1459,            "cin": 1460,            "tierra": 1461,            "guar": 1462,            "cado": 1463,            "encon": 1464,            "pren": 1465,            "mayor": 1466,            "fal": 1467,            "Ã°": 1468,            "Ä§": 1469,            "Åˆ": 1470,            "É™": 1471,            "Î¸": 1472,            "â€™": 1473,            "â€œ": 1474,            "â€": 1475,            "zi": 1476,            "gli": 1477,            "tto": 1478,            "ono": 1479,            "nel": 1480,            "tti": 1481,            "della": 1482,            "zione": 1483,            "tta": 1484,            "tÃ ": 1485,            "uo": 1486,            "come": 1487,            "alla": 1488,            "oni": 1489,            "ggi": 1490,            "ssi": 1491,            "piÃ¹": 1492,            "ini": 1493,            "bb": 1494,            "sto": 1495,            "sono": 1496,            "eri": 1497,            "sse": 1498,            "sc": 1499,            "sul": 1500,            "vano": 1501,            "sti": 1502,            "suo": 1503,            "cchi": 1504,            "zza": 1505,            "anche": 1506,            "tte": 1507,            "sci": 1508,            "col": 1509,            "sso": 1510,            "ssa": 1511,            "dei": 1512,            "aveva": 1513,            "zz": 1514,            "amo": 1515,            "gno": 1516,            "sua": 1517,            "ria": 1518,            "sÃ¬": 1519,            "chÃ©": 1520,            "dal": 1521,            "ona": 1522,            "spe": 1523,            "gni": 1524,            "tt": 1525,            "delle": 1526,            "questo": 1527,            "nella": 1528,            "dere": 1529,            "anno": 1530,            "dell": 1531,            "uni": 1532,            "bbe": 1533,            "anti": 1534,            "ene": 1535,            "gio": 1536,            "uto": 1537,            "qual": 1538,            "glia": 1539,            "quando": 1540,            "tutto": 1541,            "glio": 1542,            "zioni": 1543,            "cam": 1544,            "esso": 1545,            "ss": 1546,            "mol": 1547,            "loro": 1548,            "perchÃ©": 1549,            "cosa": 1550,            "due": 1551,            "poi": 1552,            "sco": 1553,            "cco": 1554,            "gna": 1555,            "tem": 1556,            "prima": 1557,            "cosÃ¬": 1558,            "essere": 1559,            "ani": 1560,            "bra": 1561,            "rio": 1562,            "anco": 1563,            "cui": 1564,            "spi": 1565,            "via": 1566,            "gior": 1567,            "bile": 1568,            "ggio": 1569,            "mai": 1570,            "tare": 1571,            "indi": 1572,            "rebbe": 1573,            "senza": 1574,            "zio": 1575,            "tutti": 1576,            "stato": 1577,            "zia": 1578,            "dalla": 1579,            "mia": 1580,            "vita": 1581,            "quella": 1582,            "qua": 1583,            "dove": 1584,            "allo": 1585,            "sempre": 1586,            "zzo": 1587,            "sia": 1588,            "dopo": 1589,            "porta": 1590,            "ccia": 1591,            "erano": 1592,            "anni": 1593,            "chia": 1594,            "enza": 1595,            "propri": 1596,            "anda": 1597,            "cca": 1598,            "occhi": 1599,            "questa": 1600,            "ffi": 1601,            "ron": 1602,            "mio": 1603,            "ris": 1604,            "ogni": 1605,            "rin": 1606,            "far": 1607,            "menti": 1608,            "ancora": 1609,            "fatto": 1610,            "mani": 1611,            "senti": 1612,            "pra": 1613,            "tempo": 1614,            "essi": 1615,            "bbi": 1616,            "lare": 1617,            "pers": 1618,            "sor": 1619,            "anza": 1620,            "pie": 1621,            "verso": 1622,            "altro": 1623,            "tato": 1624,            "cato": 1625,            "ato": 1626,            "volta": 1627,            "cc": 1628,            "fare": 1629,            "ciÃ²": 1630,            "bili": 1631,            "nuo": 1632,            "quello": 1633,            "colo": 1634,            "ppo": 1635,            "trova": 1636,            "ore": 1637,            "rono": 1638,            "molto": 1639,            "almente": 1640,            "sca": 1641,            "vole": 1642,            "tali": 1643,            "sulla": 1644,            "sce": 1645,            "meno": 1646,            "anto": 1647,            "pun": 1648,            "stu": 1649,            "capi": 1650,            "giu": 1651,            "mini": 1652,            "pia": 1653,            "lavo": 1654,            "vero": 1655,            "rsi": 1656,            "altri": 1657,            "scia": 1658,            "suoi": 1659,            "glie": 1660,            "sotto": 1661,            "bene": 1662,            "scri": 1663,            "tale": 1664,            "degli": 1665,            "alc": 1666,            "uomo": 1667,            "pel": 1668,            "pote": 1669,            "essa": 1670,            "scu": 1671,            "signo": 1672,            "stro": 1673,            "uti": 1674,            "sione": 1675,            "gre": 1676,            "fini": 1677,            "lun": 1678,            "esi": 1679,            "passa": 1680,            "rÃ ": 1681,            "mentre": 1682,            "hanno": 1683,            "usci": 1684,            "gia": 1685,            "giÃ ": 1686,            "mina": 1687,            "tica": 1688,            "giorno": 1689,            "esse": 1690,            "modo": 1691,            "spa": 1692,            "proprio": 1693,            "ori": 1694,            "contro": 1695,            "stru": 1696,            "diven": 1697,            "disse": 1698,            "rato": 1699,            "noi": 1700,            "vere": 1701,            "puÃ²": 1702,            "dice": 1703,            "cci": 1704,            "secon": 1705,            "ccio": 1706,            "qualche": 1707,            "tutta": 1708,            "gg": 1709,            "mondo": 1710,            "forma": 1711,            "mma": 1712,            "pensa": 1713,            "deva": 1714,            "fosse": 1715,            "sopra": 1716,            "tamente": 1717,            "ness": 1718,            "quanto": 1719,            "raga": 1720,            "unque": 1721,            "care": 1722,            "stre": 1723,            "grande": 1724,            "picco": 1725,            "guarda": 1726,            "nell": 1727,            "possi": 1728,            "presen": 1729,            "rÃ²": 1730,            "paro": 1731,            "tua": 1732,            "vin": 1733,            "ane": 1734,            "stesso": 1735,            "dav": 1736,            "nei": 1737,            "nelle": 1738,            "ghi": 1739,            "pio": 1740,            "lato": 1741,            "sid": 1742,            "fine": 1743,            "fuo": 1744,            "quasi": 1745,            "ulti": 1746,            "ito": 1747,            "sue": 1748,            "fil": 1749,            "allora": 1750,            "veni": 1751,            "tano": 1752,            "ello": 1753,            "Ã£o": 1754,            "nÃ£o": 1755,            "uma": 1756,            "ela": 1757,            "lh": 1758,            "Ã§Ã£o": 1759,            "cÃª": 1760,            "inha": 1761,            "vocÃª": 1762,            "ec": 1763,            "dade": 1764,            "ao": 1765,            "ram": 1766,            "vel": 1767,            "Ã©m": 1768,            "pode": 1769,            "estava": 1770,            "isso": 1771,            "mui": 1772,            "faz": 1773,            "Ãµes": 1774,            "pes": 1775,            "ix": 1776,            "sim": 1777,            "olh": 1778,            "isa": 1779,            "Ãªn": 1780,            "tinha": 1781,            "meu": 1782,            "sÃ£o": 1783,            "minha": 1784,            "muito": 1785,            "foi": 1786,            "bem": 1787,            "diz": 1788,            "parec": 1789,            "Ã§o": 1790,            "pesso": 1791,            "pois": 1792,            "mesmo": 1793,            "Ã§Ãµes": 1794,            "seus": 1795,            "atÃ©": 1796,            "Ãªncia": 1797,            "lhe": 1798,            "tiv": 1799,            "mÃ£": 1800,            "sÃ³": 1801,            "tÃ£o": 1802,            "tudo": 1803,            "entÃ£o": 1804,            "inda": 1805,            "bal": 1806,            "indo": 1807,            "ndo": 1808,            "jÃ¡": 1809,            "vam": 1810,            "eito": 1811,            "depois": 1812,            "mel": 1813,            "lha": 1814,            "ainda": 1815,            "fazer": 1816,            "pou": 1817,            "pergun": 1818,            "deix": 1819,            "tamb": 1820,            "ala": 1821,            "pelo": 1822,            "tambÃ©m": 1823,            "fica": 1824,            "prec": 1825,            "eles": 1826,            "havia": 1827,            "lÃ¡": 1828,            "nas": 1829,            "gem": 1830,            "mem": 1831,            "Ã³s": 1832,            "deu": 1833,            "eiro": 1834,            "..": 1835,            "assim": 1836,            "ior": 1837,            "har": 1838,            "aqui": 1839,            "cul": 1840,            "sar": 1841,            "outra": 1842,            "olhos": 1843,            "ima": 1844,            "mim": 1845,            "ago": 1846,            "pessoas": 1847,            "eram": 1848,            "eira": 1849,            "pela": 1850,            "coisa": 1851,            "mÃ£o": 1852,            "conh": 1853,            "agora": 1854,            "iam": 1855,            "hÃ¡": 1856,            "suas": 1857,            "guÃ©m": 1858,            "cabe": 1859,            "nem": 1860,            "Ã­vel": 1861,            "consegu": 1862,            "trabal": 1863,            "lev": 1864,            "lem": 1865,            "vai": 1866,            "tei": 1867,            "prÃ³": 1868,            "quem": 1869,            "onde": 1870,            "cabeÃ§a": 1871,            "nunca": 1872,            "mentos": 1873,            "hum": 1874,            "dele": 1875,            "verdade": 1876,            "tÃ¡": 1877,            "hos": 1878,            "algum": 1879,            "dizer": 1880,            "penas": 1881,            "nÃ³s": 1882,            "enquanto": 1883,            "outro": 1884,            "lho": 1885,            "melhor": 1886,            "primei": 1887,            "iu": 1888,            "apenas": 1889,            "estou": 1890,            "conte": 1891,            "homem": 1892,            "dois": 1893,            "Ã§as": 1894,            "pouco": 1895,            "senhor": 1896,            "tando": 1897,            "espera": 1898,            "pai": 1899,            "rios": 1900,            "baix": 1901,            "ase": 1902,            "isas": 1903,            "hora": 1904,            "ficar": 1905,            "seja": 1906,            "Ã¢n": 1907,            "clar": 1908,            "inc": 1909,            "fos": 1910,            "ouvi": 1911,            "vem": 1912,            "tava": 1913,            "Ã¡rio": 1914,            "sos": 1915,            "inho": 1916,            "rando": 1917,            "Ãªs": 1918,            "coisas": 1919,            "aconte": 1920,            "lher": 1921,            "anos": 1922,            "talvez": 1923,            "estÃ£o": 1924,            "liv": 1925,            "outros": 1926,            "qualquer": 1927,            "gou": 1928,            "lÃ­": 1929,            "tivesse": 1930,            "rado": 1931,            "precisa": 1932,            "mÃ£e": 1933,            "dela": 1934,            "entra": 1935,            "maior": 1936,            "noite": 1937,            "tiva": 1938,            "pala": 1939,            "raÃ§Ã£o": 1940,            "deus": 1941,            "sas": 1942,            "inte": 1943,            "fei": 1944,            "palav": 1945,            "trÃ¡s": 1946,            "cidade": 1947,            "lugar": 1948,            "vezes": 1949,            "encontra": 1950,            "tru": 1951,            "eci": 1952,            "Ä±n": 1953,            "bir": 1954,            "yor": 1955,            "ek": 1956,            "dÄ±": 1957,            "ey": 1958,            "tÄ±": 1959,            "mÄ±": 1960,            "iz": 1961,            "Ä±r": 1962,            "gÃ¶": 1963,            "sÄ±": 1964,            "bil": 1965,            "lÄ±": 1966,            "Ã¼z": 1967,            "iÃ§": 1968,            "iy": 1969,            "Ä±m": 1970,            "uz": 1971,            "cak": 1972,            "iÅŸ": 1973,            "Ä±nÄ±": 1974,            "iyor": 1975,            "baÅŸ": 1976,            "dÃ¼": 1977,            "deÄŸ": 1978,            "kar": 1979,            "ev": 1980,            "Ã¶y": 1981,            "bun": 1982,            "yap": 1983,            "sun": 1984,            "gÃ¶r": 1985,            "yÄ±": 1986,            "ki": 1987,            "ara": 1988,            "alÄ±": 1989,            "onu": 1990,            "Ã§Ä±": 1991,            "ÅŸey": 1992,            "sÄ±n": 1993,            "kÄ±": 1994,            "kad": 1995,            "aÄŸ": 1996,            "deÄŸil": 1997,            "Ã¼k": 1998,            "Ã§ok": 1999,            "ÅŸÄ±": 2000,            "Ã¼l": 2001,            "iÃ§in": 2002,            "eye": 2003,            "oldu": 2004,            "mÄ±ÅŸ": 2005,            "kal": 2006,            "mek": 2007,            "Ã¶yle": 2008,            "yordu": 2009,            "yÃ¼z": 2010,            "miÅŸ": 2011,            "mak": 2012,            "ola": 2013,            "yan": 2014,            "cek": 2015,            "yorum": 2016,            "bak": 2017,            "Ã¼m": 2018,            "larÄ±": 2019,            "oÄŸ": 2020,            "kadar": 2021,            "arÄ±": 2022,            "Ä±nda": 2023,            "gÃ¼n": 2024,            "yok": 2025,            "yer": 2026,            "dÄ±m": 2027,            "daha": 2028,            "Ä±na": 2029,            "dim": 2030,            "bilir": 2031,            "iki": 2032,            "siz": 2033,            "diÄŸ": 2034,            "bÃ¼": 2035,            "dÃ¼ÅŸ": 2036,            "Ã¼Ã§": 2037,            "unu": 2038,            "aman": 2039,            "fak": 2040,            "ede": 2041,            "sonra": 2042,            "hiÃ§": 2043,            "aki": 2044,            "ÄŸÄ±": 2045,            "bul": 2046,            "maz": 2047,            "anla": 2048,            "bura": 2049,            "geÃ§": 2050,            "maya": 2051,            "konu": 2052,            "din": 2053,            "tek": 2054,            "zaman": 2055,            "eler": 2056,            "Ã¶z": 2057,            "dÄ±r": 2058,            "gibi": 2059,            "ÅŸa": 2060,            "leri": 2061,            "kim": 2062,            "ku": 2063,            "fakat": 2064,            "yar": 2065,            "gÃ¶z": 2066,            "cÄ±": 2067,            "yorsun": 2068,            "bek": 2069,            "inde": 2070,            "pek": 2071,            "bunu": 2072,            "lik": 2073,            "iler": 2074,            "edi": 2075,            "Ã¶l": 2076,            "sÃ¼r": 2077,            "sÄ±r": 2078,            "Ã§Ä±k": 2079,            "sÄ±l": 2080,            "alar": 2081,            "kes": 2082,            "yak": 2083,            "Ã§ek": 2084,            "yÄ±l": 2085,            "ecek": 2086,            "Ä±z": 2087,            "git": 2088,            "kap": 2089,            "ama": 2090,            "Ä±l": 2091,            "larÄ±n": 2092,            "biz": 2093,            "tÄ±r": 2094,            "oy": 2095,            "ancak": 2096,            "doÄŸ": 2097,            "bana": 2098,            "ÅŸim": 2099,            "baÅŸla": 2100,            "lÃ¼": 2101,            "madÄ±": 2102,            "beni": 2103,            "yÃ¼k": 2104,            "lÄ±k": 2105,            "beÅŸ": 2106,            "nasÄ±l": 2107,            "tÄ±k": 2108,            "tÃ¼r": 2109,            "daki": 2110,            "ceÄŸ": 2111,            "zÄ±": 2112,            "iyi": 2113,            "dok": 2114,            "benim": 2115,            "caÄŸ": 2116,            "yen": 2117,            "ÅŸu": 2118,            "mez": 2119,            "dÃ¼ÅŸÃ¼n": 2120,            "kendi": 2121,            "ÅŸimdi": 2122,            "yol": 2123,            "yu": 2124,            "iste": 2125,            "sek": 2126,            "mam": 2127,            "sÃ¶yle": 2128,            "dik": 2129,            "kur": 2130,            "olduÄŸ": 2131,            "sÄ±nÄ±": 2132,            "biliyor": 2133,            "kan": 2134,            "yal": 2135,            "meye": 2136,            "muÅŸ": 2137,            "kaÃ§": 2138,            "iye": 2139,            "tÃ¼": 2140,            "ef": 2141,            "tÄ±m": 2142,            "evet": 2143,            "yet": 2144,            "burada": 2145,            "tim": 2146,            "biraz": 2147,            "kor": 2148,            "doÄŸru": 2149,            "inin": 2150,            "kÄ±z": 2151,            "diye": 2152,            "dÃ¶r": 2153,            "etti": 2154,            "onun": 2155,            "isti": 2156,            "ÄŸi": 2157,            "sana": 2158,            "Ã¼ÅŸ": 2159,            "arka": 2160,            "hayÄ±r": 2161,            "karÅŸÄ±": 2162,            "ile": 2163,            "hak": 2164,            "Ä±yor": 2165,            "neden": 2166,            "sev": 2167,            "sÄ±z": 2168,            "Ã§ocu": 2169,            "Ã§alÄ±": 2170,            "olur": 2171,            "bÄ±r": 2172,            "gir": 2173,            "ise": 2174,            "ih": 2175,            "kÄ±r": 2176,            "dÃ¶n": 2177,            "bÃ¶yle": 2178,            "seni": 2179,            "!\"": 2180,            "dÃ¶rt": 2181,            "sÃ¶y": 2182,            "oÅŸ": 2183,            "musun": 2184,            "laÅŸ": 2185,            "ip": 2186,            "kay": 2187,            "hem": 2188,            "bÃ¼yÃ¼k": 2189,            "aÃ§": 2190,            "bÄ±rak": 2191,            "misin": 2192,            "sÃ¶z": 2193,            "deÄŸiÅŸ": 2194,            "Ã¼nÃ¼": 2195,            "gÃ¼l": 2196,            "kÃ¶": 2197,            "karÄ±": 2198,            "tamam": 2199,            "olu": 2200,            "yeni": 2201,            "lam": 2202,            "mÄ±ÅŸtÄ±": 2203,            "yaÅŸ": 2204,            "iniz": 2205,            "kadÄ±n": 2206,            "bunun": 2207,            "mey": 2208,            "altÄ±": 2209,            "yi": 2210,            "inden": 2211,            "senin": 2212,            "yat": 2213,            "top": 2214,            "isi": 2215,            "dÃ¼n": 2216,            "hiÃ§bir": 2217,            "yon": 2218,            "dÄ±n": 2219,            "tÃ¼n": 2220,            "baÅŸka": 2221,            "hep": 2222,            "irmi": 2223,            "devam": 2224,            "olacak": 2225,            "artÄ±k": 2226,            "durum": 2227,            "imiz": 2228,            "Ã¼zel": 2229,            "lerini": 2230,            "saÄŸ": 2231,            "gerek": 2232,            "yirmi": 2233,            "ÅŸek": 2234,            "baÄŸ": 2235,            "lara": 2236,            "yÃ¼r": 2237,            "masÄ±": 2238,            "katÄ±": 2239,            "dedi": 2240,            "gÃ¼": 2241,            "sorun": 2242,            "Ã¼ne": 2243,            "mÄ±z": 2244,            "yapÄ±": 2245,            "mil": 2246,            "ÄŸÄ±nÄ±": 2247,            "tara": 2248,            "vardÄ±": 2249,            "konuÅŸ": 2250,            "arak": 2251,            "larak": 2252,            "Ã§ocuk": 2253,            "bÃ¼tÃ¼n": 2254,            "ley": 2255,            "dÃ¼r": 2256,            "gÃ¼zel": 2257,            "ayÄ±": 2258,            "yapa": 2259,            "nÄ±": 2260,            "ayr": 2261,            "Ã¶ne": 2262,            "yordum": 2263,            "ban": 2264,            "iÌ‡ÅŸ": 2265,            "dum": 2266,            "yorlar": 2267,            "larÄ±nÄ±": 2268,            "Ã§Ä±kar": 2269,            "zan": 2270,            "seÃ§": 2271,            "liyor": 2272,            "tak": 2273,            "ÅŸÄ±k": 2274,            "tekrar": 2275,            "aÅŸ": 2276,            "eÅŸ": 2277,            "miÅŸti": 2278,            "kin": 2279,            "imi": 2280,            "eÄŸ": 2281,            "gidi": 2282,            "leÅŸ": 2283,            "baÅŸladÄ±": 2284,            "gide": 2285,            "otur": 2286,            "dde": 2287,            "Ä±ndan": 2288,            "Ã¼zer": 2289,            "Ä±nÄ±n": 2290,            "nÄ±z": 2291,            "uy": 2292,            "yedi": 2293,            "kat": 2294,            "olarak": 2295,            "ladÄ±": 2296,            "yalnÄ±z": 2297,            "bah": 2298,            "iyet": 2299,            "sak": 2300,            "aÃ§Ä±k": 2301,            "sÄ±nda": 2302,            "...": 2303,            "insan": 2304,            "aynÄ±": 2305,            "eder": 2306,            "istan": 2307,            "uzun": 2308,            "geri": 2309,            "erek": 2310,            "olan": 2311,            "gerÃ§ek": 2312,            "alan": 2313,            "dÄ±ÅŸ": 2314,            "alÄ±k": 2315,            "fark": 2316,            "Ã¼st": 2317,            "sade": 2318,            "kiÅŸ": 2319,            "ldÄ±": 2320,            "zor": 2321,            "etir": 2322,            "herkes": 2323,            "Ã¶mer": 2324,            "unda": 2325,            "haf": 2326,            "buna": 2327,            "ydÄ±": 2328,            "peki": 2329,            "adam": 2330,            "haz": 2331,            "sÄ±na": 2332,            "kapÄ±": 2333,            "gÃ¶rÃ¼ÅŸ": 2334,            "sadece": 2335,            "aldÄ±": 2336,            "geldi": 2337,            "rz": 2338,            "sz": 2339,            "cz": 2340,            "iÄ™": 2341,            "dz": 2342,            "aÅ‚": 2343,            "siÄ™": 2344,            "rze": 2345,            "Å¼e": 2346,            "wy": 2347,            "rzy": 2348,            "Å‚a": 2349,            "Å‚o": 2350,            "ny": 2351,            "dzie": 2352,            "dzi": 2353,            "czy": 2354,            "cie": 2355,            "prze": 2356,            "dy": 2357,            "kie": 2358,            "ry": 2359,            "jÄ…": 2360,            "Ã³w": 2361,            "przy": 2362,            "mie": 2363,            "szy": 2364,            "cze": 2365,            "bie": 2366,            "cy": 2367,            "nia": 2368,            "Å›ci": 2369,            "sze": 2370,            "jest": 2371,            "Å¼y": 2372,            "nÄ…": 2373,            "ktÃ³": 2374,            "aÅ‚a": 2375,            "mnie": 2376,            "Å‚y": 2377,            "cza": 2378,            "jak": 2379,            "roz": 2380,            "rÃ³": 2381,            "zna": 2382,            "Å‚u": 2383,            "Å›Ä‡": 2384,            "wia": 2385,            "wszy": 2386,            "spo": 2387,            "gdy": 2388,            "waÅ‚": 2389,            "wiÄ™": 2390,            "Å‚em": 2391,            "jÄ™": 2392,            "sk": 2393,            "rÄ™": 2394,            "dob": 2395,            "juÅ¼": 2396,            "bÄ™": 2397,            "aÅ‚em": 2398,            "sza": 2399,            "pod": 2400,            "dla": 2401,            "pan": 2402,            "nÄ™": 2403,            "moÅ¼e": 2404,            "Å›li": 2405,            "aÅ‚o": 2406,            "lko": 2407,            "nych": 2408,            "powie": 2409,            "ciÄ™": 2410,            "tylko": 2411,            "naj": 2412,            "tego": 2413,            "ski": 2414,            "nego": 2415,            "wszyst": 2416,            "szcze": 2417,            "jed": 2418,            "jej": 2419,            "two": 2420,            "Ä…d": 2421,            "Å›my": 2422,            "czÄ™": 2423,            "waÄ‡": 2424,            "jego": 2425,            "Å¼a": 2426,            "sy": 2427,            "praw": 2428,            "tym": 2429,            "ktÃ³ry": 2430,            "aÅ‚y": 2431,            "trze": 2432,            "niej": 2433,            "nym": 2434,            "gÅ‚o": 2435,            "jÄ…c": 2436,            "mÃ³wi": 2437,            "ska": 2438,            "nej": 2439,            "sÅ‚u": 2440,            "wÅ‚a": 2441,            "bÄ™dzie": 2442,            "dÄ™": 2443,            "pÃ³": 2444,            "bez": 2445,            "nic": 2446,            "pÅ‚a": 2447,            "Å›cie": 2448,            "sÄ…": 2449,            "trzy": 2450,            "kiem": 2451,            "byÅ‚": 2452,            "mog": 2453,            "robi": 2454,            "tam": 2455,            "miÄ™": 2456,            "zy": 2457,            "pew": 2458,            "myÅ›": 2459,            "przed": 2460,            "sko": 2461,            "ktÃ³re": 2462,            "lÄ™": 2463,            "wsze": 2464,            "Ä…c": 2465,            "byÅ‚o": 2466,            "sobie": 2467,            "py": 2468,            "ciÄ…": 2469,            "jeszcze": 2470,            "tÄ™": 2471,            "czas": 2472,            "szÄ™": 2473,            "gÅ‚": 2474,            "kÄ™": 2475,            "czu": 2476,            "przez": 2477,            "sÅ‚o": 2478,            "wz": 2479,            "kto": 2480,            "kÃ³w": 2481,            "czo": 2482,            "liÅ›my": 2483,            "wiÄ™c": 2484,            "rÄ…": 2485,            "wÃ³": 2486,            "rza": 2487,            "noÅ›ci": 2488,            "wet": 2489,            "nÄ…Å‚": 2490,            "Å›mie": 2491,            "nawet": 2492,            "musi": 2493,            "swo": 2494,            "tej": 2495,            "wÄ…": 2496,            "wu": 2497,            "wiÄ…": 2498,            "niu": 2499,            "czÄ…": 2500,            "dzo": 2501,            "skie": 2502,            "jeÅ›li": 2503,            "czego": 2504,            "chy": 2505,            "dÅ‚": 2506,            "tych": 2507,            "bym": 2508,            "Å¼o": 2509,            "eÅ›": 2510,            "siÄ…": 2511,            "kiedy": 2512,            "wrÃ³": 2513,            "dze": 2514,            "dro": 2515,            "rÃ³w": 2516,            "pani": 2517,            "kul": 2518,            "nad": 2519,            "chwi": 2520,            "nim": 2521,            "byÄ‡": 2522,            "chodzi": 2523,            "nio": 2524,            "dobrze": 2525,            "teraz": 2526,            "wokul": 2527,            "coÅ›": 2528,            "kÅ‚": 2529,            "pier": 2530,            "gdzie": 2531,            "dzy": 2532,            "piÄ™": 2533,            "dÅº": 2534,            "kÄ…": 2535,            "gÃ³": 2536,            "zda": 2537,            "chce": 2538,            "stÄ™": 2539,            "Å›wia": 2540,            "wszystko": 2541,            "peÅ‚": 2542,            "wiem": 2543,            "wiel": 2544,            "kaÅ¼": 2545,            "rzu": 2546,            "sÅ‚y": 2547,            "jedna": 2548,            "myÅ›l": 2549,            "mÃ³j": 2550,            "jestem": 2551,            "Ã³Å¼": 2552,            "miej": 2553,            "moÅ¼": 2554,            "kÅ‚a": 2555,            "resz": 2556,            "dÅ‚u": 2557,            "stwo": 2558,            "niÄ™": 2559,            "masz": 2560,            "Å¼eby": 2561,            "niem": 2562,            "jakie": 2563,            "sty": 2564,            "niÄ…": 2565,            "wej": 2566,            "oj": 2567,            "sÅ‚a": 2568,            "noÅ›Ä‡": 2569,            "zÅ‚o": 2570,            "szczÄ™": 2571,            "lej": 2572,            "wego": 2573,            "caÅ‚": 2574,            "dziaÅ‚": 2575,            "kich": 2576,            "dza": 2577,            "dziÄ™": 2578,            "oczy": 2579,            "zosta": 2580,            "czÅ‚o": 2581,            "nam": 2582,            "kil": 2583,            "szu": 2584,            "wÄ™": 2585,            "miaÅ‚": 2586,            "strze": 2587,            "cej": 2588,            "ej": 2589,            "znaj": 2590,            "daÄ‡": 2591,            "miejs": 2592,            "krÃ³": 2593,            "kry": 2594,            "bardzo": 2595,            "Å›nie": 2596,            "lÄ…": 2597,            "gie": 2598,            "ciebie": 2599,            "dni": 2600,            "potrze": 2601,            "wokulski": 2602,            "uwa": 2603,            "umie": 2604,            "jednak": 2605,            "kra": 2606,            "wrÃ³ci": 2607,            "czÅ‚owie": 2608,            "czyÄ‡": 2609,            "byÅ‚a": 2610,            "Å¼eli": 2611,            "mÄ™": 2612,            "cÄ™": 2613,            "zrobi": 2614,            "mogÄ™": 2615,            "prowa": 2616,            "rem": 2617,            "niech": 2618,            "cznie": 2619,            "kro": 2620,            "tÄ…": 2621,            "chci": 2622,            "bro": 2623,            "dzieÄ‡": 2624,            "szÄ…": 2625,            "pad": 2626,            "trz": 2627,            "jem": 2628,            "tÃ³w": 2629,            "dru": 2630,            "taj": 2631,            "rzekÅ‚": 2632,            "niego": 2633,            "takie": 2634,            "waÅ‚a": 2635,            "towa": 2636,            "kapÅ‚a": 2637,            "widzi": 2638,            "podob": 2639,            "dzÄ™": 2640,            "taÅ‚": 2641,            "stÄ™p": 2642,            "bÄ…": 2643,            "poko": 2644,            "wem": 2645,            "gÄ™": 2646,            "aby": 2647,            "albo": 2648,            "spra": 2649,            "zno": 2650,            "smo": 2651,            "jesz": 2652,            "ksiÄ™": 2653,            "jesteÅ›": 2654,            "poz": 2655,            "nigdy": 2656,            "ksiÄ…": 2657,            "cÃ³Å¼": 2658,            "ws": 2659,            "pow": 2660,            "tka": 2661,            "Å›wie": 2662,            "szka": 2663,            "samo": 2664,            "sÅ‚": 2665,            "rzÄ™": 2666,            "nale": 2667,            "chcesz": 2668,            "nik": 2669,            "pÄ™": 2670,            "chyba": 2671,            "ciÄ…g": 2672,            "jÄ…cy": 2673,            "woj": 2674,            "nasze": 2675,            "mniej": 2676,            "wiÄ™cej": 2677,            "zwy": 2678,            "osta": 2679,            "waÅ¼": 2680,            "Å›mier": 2681,            "wier": 2682,            "dzÄ…": 2683,            "zaÅ›": 2684,            "gdyby": 2685,            "jaki": 2686,            "wol": 2687,            "win": 2688,            "dÄ…": 2689,            "Å›cia": 2690,            "rozma": 2691,            "wal": 2692,            "panie": 2693,            "star": 2694,            "kaz": 2695,            "jeÅ¼eli": 2696,            "wra": 2697,            "koÅ„": 2698,            "siebie": 2699,            "znowu": 2700,            "czem": 2701,            "stwa": 2702,            "isto": 2703,            "pÃ³Å‚": 2704,            "daÅ‚": 2705,            "kobie": 2706,            "aÅ‚am": 2707,            "wych": 2708,            "cesa": 2709,            "nich": 2710,            "zawsze": 2711,            "dziÄ‡": 2712,            "teÅ¼": 2713,            "lepie": 2714,            "proszÄ™": 2715,            "kre": 2716,            "twa": 2717,            "Å‚Ä…": 2718,            "chu": 2719,            "cÄ…": 2720,            "prz": 2721,            "Å‚e": 2722,            "szedÅ‚": 2723,            "odpowie": 2724,            "myÅ›li": 2725,            "Å›wiÄ…": 2726,            "Åº": 2727,            "Å‚": 2728,            "&": 2729,            "=": 2730,            "Äƒ": 2731,            "Ä‘": 2732,            "Å£": 2733,            "â€“": 2734,            "â€˜": 2735,            "ij": 2736,            "aa": 2737,            "een": 2738,            "het": 2739,            "aar": 2740,            "oor": 2741,            "ijn": 2742,            "dat": 2743,            "oe": 2744,            "ijk": 2745,            "aan": 2746,            "voor": 2747,            "iet": 2748,            "zijn": 2749,            "niet": 2750,            "oo": 2751,            "moet": 2752,            "heb": 2753,            "uit": 2754,            "wij": 2755,            "aat": 2756,            "lijk": 2757,            "sl": 2758,            "daar": 2759,            "deze": 2760,            "worden": 2761,            "moeten": 2762,            "onder": 2763,            "hebben": 2764,            "ook": 2765,            "ct": 2766,            "nog": 2767,            "aal": 2768,            "eer": 2769,            "bij": 2770,            "mijn": 2771,            "kom": 2772,            "atie": 2773,            "eft": 2774,            "kel": 2775,            "rij": 2776,            "heid": 2777,            "af": 2778,            "stel": 2779,            "maar": 2780,            "wee": 2781,            "heeft": 2782,            "waar": 2783,            "eren": 2784,            "wat": 2785,            "wil": 2786,            "aag": 2787,            "bet": 2788,            "hij": 2789,            "kun": 2790,            "uw": 2791,            "dt": 2792,            "door": 2793,            "tij": 2794,            "ond": 2795,            "geen": 2796,            "gev": 2797,            "veel": 2798,            "naar": 2799,            "aten": 2800,            "kunnen": 2801,            "echt": 2802,            "goe": 2803,            "twee": 2804,            "delijk": 2805,            "uur": 2806,            "toe": 2807,            "meer": 2808,            "onze": 2809,            "tijd": 2810,            "hoe": 2811,            "tot": 2812,            "zou": 2813,            "aak": 2814,            "amen": 2815,            "woor": 2816,            "wordt": 2817,            "gelijk": 2818,            "gaan": 2819,            "ker": 2820,            "eld": 2821,            "hou": 2822,            "zel": 2823,            "tegen": 2824,            "komen": 2825,            "werk": 2826,            "goed": 2827,            "zal": 2828,            "zij": 2829,            "slag": 2830,            "zien": 2831,            "echter": 2832,            "itie": 2833,            "tie": 2834,            "elijk": 2835,            "ische": 2836,            "belan": 2837,            "haar": 2838,            "vr": 2839,            "grijk": 2840,            "doen": 2841,            "land": 2842,            "belangrijk": 2843,            "open": 2844,            "ctie": 2845,            "zelf": 2846,            "mij": 2847,            "iteit": 2848,            "stem": 2849,            "mee": 2850,            "aren": 2851,            "dien": 2852,            "gaat": 2853,            "prob": 2854,            "moe": 2855,            "ullen": 2856,            "zich": 2857,            "daarom": 2858,            "orm": 2859,            "staat": 2860,            "zit": 2861,            "dui": 2862,            "dus": 2863,            "ds": 2864,            "verslag": 2865,            "kelijk": 2866,            "proble": 2867,            "schap": 2868,            "gd": 2869,            "hun": 2870,            "erd": 2871,            "zet": 2872,            "staan": 2873,            "maal": 2874,            "inder": 2875,            "eid": 2876,            "kken": 2877,            "ged": 2878,            "zullen": 2879,            "mensen": 2880,            "jaar": 2881,            "regel": 2882,            "ieder": 2883,            "volgen": 2884,            "geven": 2885,            "even": 2886,            "blij": 2887,            "iÃ«": 2888,            "uwe": 2889,            "maken": 2890,            "oek": 2891,            "nieuwe": 2892,            "baar": 2893,            "andere": 2894,            "ruik": 2895,            "agen": 2896,            "ouw": 2897,            "willen": 2898,            "aakt": 2899,            "hoo": 2900,            "anden": 2901,            "lig": 2902,            "samen": 2903,            "zeer": 2904,            "duidelijk": 2905,            "antwoor": 2906,            "heel": 2907,            "punt": 2908,            "houden": 2909,            "vraag": 2910,            "gele": 2911,            "eens": 2912,            "besch": 2913,            "omen": 2914,            "erg": 2915,            "doel": 2916,            "dag": 2917,            "uren": 2918,            "ings": 2919,            "oren": 2920,            "delen": 2921,            "steun": 2922,            "innen": 2923,            "pol": 2924,            "oon": 2925,            "sn": 2926,            "zonder": 2927,            "nodig": 2928,            "alleen": 2929,            "mid": 2930,            "ragen": 2931,            "iets": 2932,            "versch": 2933,            "gebruik": 2934,            "rouw": 2935,            "stellen": 2936,            "menten": 2937,            "eerste": 2938,            "laat": 2939,            "groot": 2940,            "ood": 2941,            "toch": 2942,            "laten": 2943,            "aard": 2944,            "sle": 2945,            "deel": 2946,            "plaat": 2947,            "ree": 2948,            "betre": 2949,            "lid": 2950,            "uiten": 2951,            "racht": 2952,            "beleid": 2953,            "stie": 2954,            "staten": 2955,            "ggen": 2956,            "reken": 2957,            "alen": 2958,            "ming": 2959,            "mogelijk": 2960,            "grote": 2961,            "altijd": 2962,            "enkel": 2963,            "wik": 2964,            "politie": 2965,            "elk": 2966,            "handel": 2967,            "kwe": 2968,            "maat": 2969,            "elen": 2970,            "vrij": 2971,            "jes": 2972,            "aam": 2973,            "huis": 2974,            "weer": 2975,            "lidstaten": 2976,            "king": 2977,            "kle": 2978,            "bed": 2979,            "geval": 2980,            "wikkel": 2981,            "kwestie": 2982,            "stee": 2983,            "hel": 2984,            "komst": 2985,            "iden": 2986,            "eerd": 2987,            "tweede": 2988,            "probleem": 2989,            "ussen": 2990,            "snel": 2991,            "tig": 2992,            "ult": 2993,            "nemen": 2994,            "commis": 2995,            "verschil": 2996,            "zoek": 2997,            "krij": 2998,            "graag": 2999,            "denk": 3000,            "landen": 3001,            "reden": 3002,            "besl": 3003,            "oeg": 3004,            "beter": 3005,            "heden": 3006,            "mag": 3007,            "boven": 3008,            "cont": 3009,            "fd": 3010,            "hele": 3011,            "vier": 3012,            "gez": 3013,            "kw": 3014,            "aas": 3015,            "ontwikkel": 3016,            "drie": 3017,            "vaak": 3018,            "plaats": 3019,            "gang": 3020,            "ijf": 3021,            "natuur": 3022,            "tussen": 3023,            "bat": 3024,            "komt": 3025,            "wacht": 3026,            "aad": 3027,            "achter": 3028,            "gebie": 3029,            "verk": 3030,            "ligt": 3031,            "nieuw": 3032,            "vand": 3033,            "Ã½": 3034,            "Ä": 3035,            "Ä›": 3036,            "Å™": 3037,            "Å¥": 3038,            "Å¯": 3039,            "â€ž": 3040,            "nÃ­": 3041,            "nÄ›": 3042,            "Å™e": 3043,            "nÃ¡": 3044,            "vÄ›": 3045,            "vÃ¡": 3046,            "rÃ¡": 3047,            "vy": 3048,            "mÄ›": 3049,            "Å™i": 3050,            "Å™Ã­": 3051,            "Å¾e": 3052,            "jÃ­": 3053,            "vÃ½": 3054,            "ji": 3055,            "dÄ›": 3056,            "Äe": 3057,            "tÄ›": 3058,            "ky": 3059,            "Å¡e": 3060,            "kÃ©": 3061,            "Å¡Ã­": 3062,            "pÅ™e": 3063,            "vÃ­": 3064,            "nÃ½": 3065,            "Å¾i": 3066,            "mÃ¡": 3067,            "cÃ­": 3068,            "zÃ¡": 3069,            "skÃ©": 3070,            "dÃ¡": 3071,            "byl": 3072,            "tÃ­": 3073,            "pÅ™Ã­": 3074,            "pÅ™i": 3075,            "Äi": 3076,            "vnÃ­": 3077,            "Äa": 3078,            "dÃ­": 3079,            "dnÃ­": 3080,            "kÃ¡": 3081,            "nou": 3082,            "vÄ›t": 3083,            "pÄ›": 3084,            "kou": 3085,            "Ã½ch": 3086,            "bÄ›": 3087,            "prÃ¡": 3088,            "jako": 3089,            "Å¾Ã­": 3090,            "zÃ­": 3091,            "jsou": 3092,            "jsem": 3093,            "lnÃ­": 3094,            "ckÃ©": 3095,            "vat": 3096,            "pÅ™ed": 3097,            "hla": 3098,            "stÃ¡": 3099,            "ÄÃ­": 3100,            "Å¡i": 3101,            "kla": 3102,            "Å¡tÄ›": 3103,            "lou": 3104,            "mÅ¯": 3105,            "chÃ¡": 3106,            "pÅ¯": 3107,            "takÃ©": 3108,            "dÅ¯": 3109,            "nost": 3110,            "tÅ™e": 3111,            "sku": 3112,            "vÅ¡e": 3113,            "tnÃ­": 3114,            "byla": 3115,            "ÄnÃ­": 3116,            "jeho": 3117,            "bÃ½": 3118,            "vÃ¡nÃ­": 3119,            "nÃ½ch": 3120,            "tÅ™i": 3121,            "vz": 3122,            "stÅ™e": 3123,            "dva": 3124,            "hle": 3125,            "ÄÃ¡": 3126,            "nosti": 3127,            "vÅ¡": 3128,            "hra": 3129,            "jen": 3130,            "slo": 3131,            "vÅ¡ak": 3132,            "kdy": 3133,            "bylo": 3134,            "bude": 3135,            "jÅ¡Ã­": 3136,            "vÃ½ch": 3137,            "nÃ­m": 3138,            "sm": 3139,            "koli": 3140,            "rÅ¯": 3141,            "mÅ¯Å¾e": 3142,            "nenÃ­": 3143,            "hod": 3144,            "bÃ­": 3145,            "tÃ½": 3146,            "stÄ›": 3147,            "uje": 3148,            "sÃ¡": 3149,            "pÄ›t": 3150,            "krÃ¡": 3151,            "tom": 3152,            "stvÃ­": 3153,            "vnÄ›": 3154,            "sed": 3155,            "svÃ©": 3156,            "pÃ­": 3157,            "musÃ­": 3158,            "uÅ¾": 3159,            "tÃ­m": 3160,            "jÃ­cÃ­": 3161,            "jedno": 3162,            "Äas": 3163,            "Äty": 3164,            "skÃ½": 3165,            "evro": 3166,            "toho": 3167,            "hy": 3168,            "kter": 3169,            "rnÃ­": 3170,            "stÃ­": 3171,            "svÄ›": 3172,            "pak": 3173,            "vÅ¡ech": 3174,            "kÅ¯": 3175,            "ng": 3176,            "Ã¡d": 3177,            "chÃ¡zÃ­": 3178,            "bÃ½t": 3179,            "prvnÃ­": 3180,            "mno": 3181,            "skÃ©ho": 3182,            "pÃ¡": 3183,            "nebo": 3184,            "kem": 3185,            "sla": 3186,            "nÃ©ho": 3187,            "zde": 3188,            "dalÅ¡Ã­": 3189,            "Å™a": 3190,            "ÄtyÅ™i": 3191,            "hrÃ¡": 3192,            "druh": 3193,            "lnÄ›": 3194,            "vla": 3195,            "skÃ½ch": 3196,            "Å¡ko": 3197,            "pÅ¯so": 3198,            "proto": 3199,            "vÅ¯": 3200,            "skÃ¡": 3201,            "Å¡est": 3202,            "dnÄ›": 3203,            "jeÅ¡tÄ›": 3204,            "mezi": 3205,            "nÄ›koli": 3206,            "jiÅ¾": 3207,            "ÄnÄ›": 3208,            "slu": 3209,            "znÃ¡": 3210,            "sedm": 3211,            "vlÃ¡": 3212,            "osm": 3213,            "byly": 3214,            "vÃ¡m": 3215,            "ckÃ½": 3216,            "tech": 3217,            "dÄ›ji": 3218,            "velmi": 3219,            "leÅ¾i": 3220,            "vala": 3221,            "lÃ½": 3222,            "tvo": 3223,            "spole": 3224,            "stup": 3225,            "moÅ¾": 3226,            "evrop": 3227,            "stal": 3228,            "jde": 3229,            "rodi": 3230,            "jejÃ­": 3231,            "poli": 3232,            "devÄ›t": 3233,            "sme": 3234,            "aÅ¾": 3235,            "tÃ©to": 3236,            "tento": 3237,            "kaÅ¾": 3238,            "nula": 3239,            "bych": 3240,            "moc": 3241,            "stou": 3242,            "kdo": 3243,            "zd": 3244,            "praco": 3245,            "tomu": 3246,            "nÃ½m": 3247,            "Å¾ivo": 3248,            "zem": 3249,            "nÃ¡sle": 3250,            "sky": 3251,            "jich": 3252,            "mÄ›l": 3253,            "dÄ›la": 3254,            "jsme": 3255,            "nice": 3256,            "stej": 3257,            "stnÃ­": 3258,            "nÃ¡ro": 3259,            "nit": 3260,            "pozdÄ›ji": 3261,            "tako": 3262,            "nce": 3263,            "Äer": 3264,            "Å¡Ã­m": 3265,            "nÄ›co": 3266,            "vÃ¡l": 3267,            "Å™ej": 3268,            "krÃ¡t": 3269,            "Ã¡lnÃ­": 3270,            "asi": 3271,            "kterÃ©": 3272,            "stav": 3273,            "majÃ­": 3274,            "mys": 3275,            "dobÄ›": 3276,            "snÄ›": 3277,            "zku": 3278,            "tÅ¯": 3279,            "chod": 3280,            "spÄ›": 3281,            "jejich": 3282,            "souÄas": 3283,            "vali": 3284,            "kte": 3285,            "prÅ¯": 3286,            "zenÃ­": 3287,            "pat": 3288,            "potÅ™e": 3289,            "dnes": 3290,            "zemÃ­": 3291,            "znam": 3292,            "mÃ¡m": 3293,            "tedy": 3294,            "hlavnÃ­": 3295,            "pouÅ¾Ã­": 3296,            "bnÃ­": 3297,            "vede": 3298,            "lep": 3299,            "jek": 3300,            "prav": 3301,            "politi": 3302,            "dne": 3303,            "ÄenÃ­": 3304,            "neÅ¾": 3305,            "dÄ›l": 3306,            "Äo": 3307,            "cÃ­ch": 3308,            "stÃ©": 3309,            "dlou": 3310,            "nÄ›kolik": 3311,            "vyu": 3312,            "ckÃ½ch": 3313,            "novÃ©": 3314,            "Äin": 3315,            "dÄ›lÃ¡": 3316,            "kÃ½": 3317,            "obla": 3318,            "podle": 3319,            "dÅ¯leÅ¾i": 3320,            "poku": 3321,            "kone": 3322,            "dÃ½": 3323,            "dvÄ›": 3324,            "Å¾Ã¡d": 3325,            "nout": 3326,            "tku": 3327,            "tvr": 3328,            "ckÃ©ho": 3329,            "rov": 3330,            "tele": 3331,            "psa": 3332,            "svÄ›t": 3333,            "tivnÃ­": 3334,            "dosta": 3335,            "Å¡el": 3336,            "druhÃ©": 3337,            "skou": 3338,            "Å¾o": 3339,            "jednÃ¡": 3340,            "vÃ½znam": 3341,            "problÃ©": 3342,            "publi": 3343,            "vÃ¡n": 3344,            "odpo": 3345,            "podpo": 3346,            "dle": 3347,            "jakÃ©": 3348,            "Å¡enÃ­": 3349,            "vÃ­m": 3350,            "bÄ›hem": 3351,            "nachÃ¡zÃ­": 3352,            "slou": 3353,            "pouze": 3354,            "otÃ¡": 3355,            "plo": 3356,            "tovÃ©": 3357,            "vÄ›tÅ¡i": 3358,            "komi": 3359,            "vajÃ­": 3360,            "tyto": 3361,            "zÃ¡pa": 3362,            "zmÄ›": 3363,            "moh": 3364,            "vÃ­ce": 3365,            "spoleÄ": 3366,            "auto": 3367,            "proti": 3368,            "dÄ›t": 3369,            "chÃ¡ze": 3370,            "Å¾el": 3371,            "Â«": 3372,            "Â»": 3373,            "Ð°": 3374,            "Ð±": 3375,            "Ð²": 3376,            "Ð³": 3377,            "Ð´": 3378,            "Ðµ": 3379,            "Ð¶": 3380,            "Ð·": 3381,            "Ð¸": 3382,            "Ð¹": 3383,            "Ðº": 3384,            "Ð»": 3385,            "Ð¼": 3386,            "Ð½": 3387,            "Ð¾": 3388,            "Ð¿": 3389,            "Ñ€": 3390,            "Ñ": 3391,            "Ñ‚": 3392,            "Ñƒ": 3393,            "Ñ„": 3394,            "Ñ…": 3395,            "Ñ†": 3396,            "Ñ‡": 3397,            "Ñˆ": 3398,            "Ñ‰": 3399,            "ÑŠ": 3400,            "Ñ‹": 3401,            "ÑŒ": 3402,            "Ñ": 3403,            "ÑŽ": 3404,            "Ñ": 3405,            "Ñ‘": 3406,            "â€‘": 3407,            "âˆ’": 3408,            "ÑÑ‚": 3409,            "ÐµÐ½": 3410,            "Ð½Ð¾": 3411,            "Ð½Ð°": 3412,            "Ð¿Ñ€": 3413,            "Ñ‚Ð¾": 3414,            "Ð¿Ð¾": 3415,            "Ñ€Ð°": 3416,            "Ð³Ð¾": 3417,            "ÐºÐ¾": 3418,            "Ð½Ðµ": 3419,            "Ð²Ð¾": 3420,            "Ð²Ð°": 3421,            "ÐµÑ‚": 3422,            "ÐµÑ€": 3423,            "Ð½Ð¸": 3424,            "ÐµÐ»": 3425,            "Ð¸Ñ‚": 3426,            "Ð½Ñ‹": 3427,            "Ð·Ð°": 3428,            "Ñ€Ð¾": 3429,            "ÐµÐ½Ð¸": 3430,            "ÐºÐ°": 3431,            "Ð»Ð¸": 3432,            "ÐµÐ¼": 3433,            "Ð´Ð°": 3434,            "Ð¾Ð±": 3435,            "Ð»Ð°": 3436,            "Ð´Ð¾": 3437,            "ÑÑ": 3438,            "Ñ‚ÑŒ": 3439,            "Ð¾Ñ‚": 3440,            "Ð»Ð¾": 3441,            "Ð»ÑŒ": 3442,            "ÐµÐ´": 3443,            "ÑÐ¾": 3444,            "Ð¼Ð¸": 3445,            "Ñ€Ðµ": 3446,            "Ð¼Ð¾": 3447,            "Ñ†Ð¸": 3448,            "Ð¿Ñ€Ð¾": 3449,            "Ñ‚Ð°": 3450,            "ÑÑ‚Ð¾": 3451,            "ÐºÐ¸": 3452,            "Ñ€Ñƒ": 3453,            "Ð¿Ñ€Ð¸": 3454,            "Ñ‚Ð¸": 3455,            "ÑÐµ": 3456,            "ÑÑ‚Ð°": 3457,            "Ð²Ñ‹": 3458,            "Ð¼Ñ‹": 3459,            "Ð²Ð¸": 3460,            "Ð±Ñ‹": 3461,            "Ð¼Ð°": 3462,            "ÐµÑ": 3463,            "Ð»Ñ": 3464,            "ÑÑ‚Ð¸": 3465,            "Ð»Ðµ": 3466,            "Ñ‡Ñ‚Ð¾": 3467,            "Ð¼Ðµ": 3468,            "Ñ€Ð¸": 3469,            "Ñ‡Ð°": 3470,            "Ð¾Ð´": 3471,            "ÐµÐ¹": 3472,            "ÐµÐ»ÑŒ": 3473,            "ÐµÐ½Ð¸Ñ": 3474,            "Ð³Ð°": 3475,            "Ð½Ñƒ": 3476,            "ÑÐ¸": 3477,            "Ð¿Ð°": 3478,            "Ñ€Ð°Ð·": 3479,            "Ð±Ð¾": 3480,            "ÑÑ‚Ð¾": 3481,            "ÑÑƒ": 3482,            "ÑÐ°": 3483,            "Ð´Ñƒ": 3484,            "ÐµÐ³Ð¾": 3485,            "ÐµÑÑ‚": 3486,            "Ð¸Ð½": 3487,            "Ð¸Ñ‚ÑŒ": 3488,            "Ð¸Ð·": 3489,            "Ð¶Ðµ": 3490,            "Ð¼Ñƒ": 3491,            "Ð¿ÐµÑ€": 3492,            "Ð¿Ð¾Ð´": 3493,            "ÐµÐ½Ð¸Ðµ": 3494,            "ÑÑŒ": 3495,            "ÐºÑƒ": 3496,            "Ð¿Ñ€ÐµÐ´": 3497,            "Ð½Ð¾Ð³Ð¾": 3498,            "Ð½Ñ‹Ñ…": 3499,            "Ð²ÐµÑ€": 3500,            "Ñ‚Ðµ": 3501,            "Ð½Ð¾Ð¹": 3502,            "Ñ†Ð¸Ð¸": 3503,            "Ð´Ðµ": 3504,            "Ñ€Ñ‹": 3505,            "Ð´ÐµÐ»": 3506,            "Ð»ÑŽ": 3507,            "Ð²Ðµ": 3508,            "Ð¾Ð½": 3509,            "Ð¼ÐµÐ½": 3510,            "Ð³Ð¸": 3511,            "Ð½Ñ": 3512,            "Ð±Ñƒ": 3513,            "Ð¿Ñ€Ð°": 3514,            "Ð²ÑÐµ": 3515,            "ÐµÑ‚ÑÑ": 3516,            "ÑÑ‚ÑŒ": 3517,            "Ð¶Ð°": 3518,            "Ð´Ð¾Ð»": 3519,            "Ð¶Ð¸": 3520,            "Ð±Ðµ": 3521,            "ÐºÐ¾Ð½": 3522,            "ÑÐ»": 3523,            "ÑˆÐ¸": 3524,            "Ð´Ð¸": 3525,            "ÑÑ‚Ð²": 3526,            "ÑÐºÐ¾": 3527,            "Ð½Ñ‹Ðµ": 3528,            "Ñ‡Ð¸": 3529,            "ÑŽÑ‚": 3530,            "Ð´ÐµÑ€": 3531,            "ÑÑ‚Ñ€Ð°": 3532,            "Ñ‚Ñ‹": 3533,            "Ñ…Ð¾Ð´": 3534,            "Ñ‰Ð¸": 3535,            "Ð·Ð¾": 3536,            "Ð·Ð½Ð°": 3537,            "Ð½Ð¾ÑÑ‚Ð¸": 3538,            "Ñ‡ÐµÑ": 3539,            "Ð²Ð»Ñ": 3540,            "Ð²Ð°Ñ‚ÑŒ": 3541,            "Ð¾Ñ€": 3542,            "Ð¿Ð¾Ð»": 3543,            "Ð²ÐµÑ‚": 3544,            "Ñ‚Ð°Ðº": 3545,            "ÑˆÐ°": 3546,            "Ñ‚Ñƒ": 3547,            "ÑÐ²Ð¾": 3548,            "Ð¿Ñ€Ðµ": 3549,            "Ð¾Ð½Ð°": 3550,            "Ð¸Ñ‚ÐµÐ»ÑŒ": 3551,            "Ð½Ñ‹Ð¹": 3552,            "ÑÐ»Ð¾": 3553,            "ÐºÐ°Ðº": 3554,            "Ð²Ð»": 3555,            "Ð½Ð¾ÑÑ‚ÑŒ": 3556,            "Ñ…Ð¾": 3557,            "Ð¼Ð¾Ð¶": 3558,            "Ð¿Ðµ": 3559,            "Ð´Ð»Ñ": 3560,            "Ð½Ð¸Ñ": 3561,            "Ð½Ð¾Ðµ": 3562,            "Ñ€Ð°Ñ": 3563,            "Ð´Ð¾Ð»Ð¶": 3564,            "Ð´Ð°Ñ€": 3565,            "Ñ‚ÐµÐ»ÑŒ": 3566,            "ÑÐºÐ°": 3567,            "Ð¿Ñƒ": 3568,            "ÑÑ‚Ð²Ð¾": 3569,            "ÐºÐ¾Ñ‚Ð¾": 3570,            "Ñ€Ð°Ð±": 3571,            "ÐµÐµ": 3572,            "Ñ€Ð¾Ð´": 3573,            "ÑÑ‚Ð¸": 3574,            "ÑÐ¾Ð±": 3575,            "Ð¾Ñ€Ñƒ": 3576,            "Ð¶ÐµÐ½": 3577,            "Ð½Ñ‹Ð¼": 3578,            "Ð¸Ñ‚Ð¸": 3579,            "Ð½Ð¸Ðµ": 3580,            "ÐºÐ¾Ð¼": 3581,            "Ð´ÐµÑ‚": 3582,            "ÑÑ‚Ñƒ": 3583,            "Ð³Ñƒ": 3584,            "Ð¿Ð¸": 3585,            "Ð¼ÐµÐ¶": 3586,            "ÐµÐ½Ð¸ÑŽ": 3587,            "Ñ‚ÐµÑ€": 3588,            "Ñ€Ð°Ð±Ð¾Ñ‚": 3589,            "Ð²Ð¾Ð·": 3590,            "Ñ†Ð¸Ñ": 3591,            "ÐºÐ¾Ð¹": 3592,            "Ñ‰ÐµÑÑ‚": 3593,            "Ð³Ñ€Ð°": 3594,            "Ð·Ð¸": 3595,            "Ñ€Ñ": 3596,            "Ð¼ÐµÐ¶Ð´Ñƒ": 3597,            "ÑÑ‚Ð²Ð°": 3598,            "Ð²Ñ": 3599,            "ÐµÐ»Ð¾": 3600,            "ÑˆÐµ": 3601,            "Ð¼ÐµÑ€": 3602,            "Ð±Ð°": 3603,            "Ð·Ñ‹": 3604,            "Ð»Ñƒ": 3605,            "Ð°Ð»ÑŒ": 3606,            "Ð´ÐµÐ¹": 3607,            "Ð³Ð»Ð°": 3608,            "Ð½Ð°Ñ€Ð¾Ð´": 3609,            "ÐºÑ‚Ð¸": 3610,            "Ð¿Ñ€ÐµÐ´ÑÑ‚Ð°": 3611,            "Ð»ÑÑ": 3612,            "ÑÐ²Ð»Ñ": 3613,            "ÑÐºÐ¸": 3614,            "Ð½Ð¾Ð²": 3615,            "ÐµÐ´Ð¸Ð½": 3616,            "Ñ€Ð¾Ð²": 3617,            "Ð¸Ñ": 3618,            "Ð½Ð¸Ð¼Ð°": 3619,            "Ñ€ÐµÐ¼": 3620,            "Ñ…Ð¾Ð´Ð¸": 3621,            "Ñ‚Ð°ÐºÐ¶Ðµ": 3622,            "Ð´Ñ€Ñƒ": 3623,            "Ð°Ñ‚ÑŒ": 3624,            "ÑÐ»ÐµÐ´": 3625,            "Ð³Ð¾Ð²Ð¾": 3626,            "Ð½Ð°Ñ": 3627,            "ÑŽÑ‰Ð¸": 3628,            "ÐµÐ½ÑŒ": 3629,            "ÐºÐ¾Ñ‚Ð¾Ñ€Ñ‹": 3630,            "Ñ…Ð¾Ñ‚": 3631,            "Ð²Ñƒ": 3632,            "Ð¸Ñ…": 3633,            "ÐµÐ¼Ñƒ": 3634,            "Ñ‡Ð¸Ñ‚": 3635,            "Ð²Ð°Ð¶": 3636,            "Ð¾Ñ€Ð³Ð°": 3637,            "Ñ‡ÐµÑÐºÐ¸": 3638,            "Ñ‰Ðµ": 3639,            "ÐºÐµ": 3640,            "Ñ…Ð°": 3641,            "Ð¿Ð¾Ñ": 3642,            "Ñ‚Ð¾Ð¼": 3643,            "Ð±Ð¾Ð»ÑŒ": 3644,            "Ð¼Ð½Ðµ": 3645,            "Ð¿Ð°Ñ": 3646,            "Ð¾Ð±ÑŠ": 3647,            "Ð¿Ñ€Ð°Ð²": 3648,            "ÐºÐ¾Ð½Ñ„": 3649,            "ÑÐ»Ñƒ": 3650,            "Ð¿Ð¾Ð´Ð´ÐµÑ€": 3651,            "ÑÑ‚Ð²Ð¸": 3652,            "Ð½Ð°Ñˆ": 3653,            "Ð»ÑŒÐºÐ¾": 3654,            "ÑÑ‚Ð¾Ñ": 3655,            "Ð½ÑƒÑŽ": 3656,            "Ð»ÐµÐ¼": 3657,            "ÐµÐ½Ð½Ñ‹Ñ…": 3658,            "ÐºÑ€Ð°": 3659,            "Ð´Ñ‹": 3660,            "Ð¼ÐµÐ¶Ð´ÑƒÐ½Ð°Ñ€Ð¾Ð´": 3661,            "Ð³Ð´Ð°": 3662,            "Ð½ÐµÐ¾Ð±": 3663,            "Ð³Ð¾ÑÑƒ": 3664,            "ÑÑ‚Ð²Ñƒ": 3665,            "ÐµÐ½Ð¸Ð¸": 3666,            "Ð³Ð¾ÑÑƒÐ´Ð°Ñ€": 3667,            "ÐºÑ‚Ð¾": 3668,            "Ð¸Ð¼": 3669,            "Ñ‡ÐµÑÑ‚": 3670,            "Ñ€ÐµÑ‚": 3671,            "Ð²Ð¾Ð¿Ñ€Ð¾": 3672,            "Ð»ÐµÐ½": 3673,            "ÐµÐ»Ð¸": 3674,            "Ñ€Ð¾Ð²Ð°": 3675,            "Ñ†Ð¸Ð¹": 3676,            "Ð½Ð°Ð¼": 3677,            "ÑÑ‚Ð¾Ð¹": 3678,            "Ð¶ÐµÐ½Ð¸Ñ": 3679,            "Ð½ÐµÐ¾Ð±Ñ…Ð¾Ð´Ð¸": 3680,            "Ð¼ÐµÐ½Ñ": 3681,            "Ð±Ñ‹Ð»Ð¾": 3682,            "ÑÐ¸Ð»Ð¸": 3683,            "Ñ„Ð¸": 3684,            "Ð²Ñ": 3685,            "ÑˆÑŒ": 3686,            "ÑÑ‚Ð¾Ð³Ð¾": 3687,            "Ð¾Ð½Ð¸": 3688,            "Ð¾Ñ€Ð³Ð°Ð½Ð¸": 3689,            "Ð±ÐµÐ·Ð¾": 3690,            "Ð¿Ñ€Ð¾Ð±": 3691,            "Ð¸Ð¼Ðµ": 3692,            "Ñ€ÐµÑˆ": 3693,            "Ð±Ð¸": 3694,            "Ð±ÐµÐ·Ð¾Ð¿Ð°Ñ": 3695,            "ÑŽÑ‚ÑÑ": 3696,            "Ð¾ÑÑ‚Ð°": 3697,            "ÐµÐ½Ð½Ð¾": 3698,            "Ð³Ð¾Ð´": 3699,            "ÐµÐ»Ð°": 3700,            "Ð¿Ñ€ÐµÐ´ÑÑ‚Ð°Ð²": 3701,            "Ñ‚ÑŒÑÑ": 3702,            "ÑÐ»Ð¾Ð²Ð¾": 3703,            "Ð¾Ñ€Ð³Ð°Ð½Ð¸Ð·Ð°": 3704,            "Ð´Ð¾Ð»Ð¶Ð½Ñ‹": 3705,            "ÑÑ‚Ð¾Ð¼": 3706,            "Ð±Ð»Ð°": 3707,            "Ñ‡Ðµ": 3708,            "Ñ‡Ñƒ": 3709,            "Ð±Ð»Ð°Ð³Ð¾": 3710,            "ÑÑ‚Ð¾Ð¼Ñƒ": 3711,            "Ð²Ñ€ÐµÐ¼": 3712,            "ÑÐ¿Ðµ": 3713,            "Ð½Ð¾Ð¼": 3714,            "ÐµÐ½Ð¸Ð¹": 3715,            "ÑÐ¿Ð¾": 3716,            "Ð½Ð°Ñ": 3717,            "Ð½ÐµÑ‚": 3718,            "Ð·Ñƒ": 3719,            "Ð²ÐµÐ´": 3720,            "ÐµÑ‰Ðµ": 3721,            "ÑÐºÐ°Ð·Ð°": 3722,            "ÑÐµÐ¹": 3723,            "ÐµÑ€ÐµÐ½": 3724,            "Ð´Ð°Ð½": 3725,            "ÑÐ°Ð¼": 3726,            "ÐµÐ»Ñ": 3727,            "Ñ€Ð°Ð½": 3728,            "Ð·Ñ‹Ð²Ð°": 3729,            "ÑÐ²Ð»ÑÐµÑ‚ÑÑ": 3730,            "Ð±ÑƒÐ´ÐµÑ‚": 3731,            "ÐºÑ‚Ð¸Ð²": 3732,            "Ñ‚Ñ€Ðµ": 3733,            "Ð´ÐµÐ»Ðµ": 3734,            "Ð¼Ð¾Ñ‚": 3735,            "ÐºÐ¾Ð½Ñ„ÐµÑ€ÐµÐ½": 3736,            "Ð»Ð°ÑÑŒ": 3737,            "Ñ‡Ð°Ñ": 3738,            "ÑÑ‚Ð¾Ñ€Ð¾": 3739,            "ÐºÐ¾Ð³Ð¾": 3740,            "ÐµÐ·": 3741,            "Ð½ÐµÐ¹": 3742,            "Ð¾Ñ": 3743,            "Ð»Ð¸ÑÑŒ": 3744,            "Ñ€Ð°Ð·Ð¾Ñ€Ñƒ": 3745,            "Ð¿ÐµÑ€Ðµ": 3746,            "ÑÑÐ¸": 3747,            "Ð½Ñ‹Ð¼Ð¸": 3748,            "Ð¿Ñ€Ð¾Ñ†": 3749,            "Ð³Ð¾Ð»Ð¾": 3750,            "Ñ‡ÐµÐ»Ð¾": 3751,            "Ð±Ð¾Ð»Ðµ": 3752,            "Ñ‡ÐµÐ»Ð¾Ð²Ðµ": 3753,            "ÑÐµÑ€": 3754,            "Ð¿Ð»": 3755,            "Ñ‡ÐµÑ‚": 3756,            "ÑÑ‚Ñ€Ð°Ð½": 3757,            "Ð¿Ñ": 3758,            "Ð±Ñ‹Ð»": 3759,            "ÐºÐ»Ð°": 3760,            "Ñ‚Ð¾Ð²": 3761,            "Ð¶Ð´": 3762,            "Ð´ÐµÐ»Ð°": 3763,            "ÐµÑ€Ð°": 3764,            "ÑƒÐ¶Ðµ": 3765,            "ÑÐ¾Ð²ÐµÑ‚": 3766,            "Ð³ÐµÐ½": 3767,            "Ð±ÐµÐ·Ð¾Ð¿Ð°ÑÐ½Ð¾ÑÑ‚Ð¸": 3768,            "Ñ†Ð°": 3769,            "ÑÐµÐ´Ð°": 3770,            "Ð¿Ð¾Ð·": 3771,            "Ð¾Ñ‚Ð²ÐµÑ‚": 3772,            "Ð¿Ñ€Ð¾Ð±Ð»ÐµÐ¼": 3773,            "Ð½Ð°ÐºÐ¾": 3774,            "Ñ‚ÐµÐ¼": 3775,            "Ð´Ð¾ÑÑ‚Ð°": 3776,            "Ð¿Ñ‹": 3777,            "Ñ‰Ð°": 3778,            "Ð²Ð¾Ð¹": 3779,            "ÑÑƒÑ‰ÐµÑÑ‚": 3780,            "Ð½ÐµÐ¾Ð±Ñ…Ð¾Ð´Ð¸Ð¼Ð¾": 3781,            "Ð±Ñ‹Ñ‚ÑŒ": 3782,            "Ð¼Ð¾Ð¶ÐµÑ‚": 3783,            "Ð´ÐµÐ¼": 3784,            "Ñ‡Ñ‚Ð¾Ð±Ñ‹": 3785,            "ÐµÐº": 3786,            "Ñ‡ÐµÑ€": 3787,            "ÑƒÑÐ¸Ð»Ð¸": 3788,            "Ñ€ÐµÑ": 3789,            "Ñ€ÑƒÐ´": 3790,            "ÐµÐ´Ð¸Ð½ÐµÐ½Ð½Ñ‹Ñ…": 3791,            "Ð´Ð¾Ð±": 3792,            "Ð´Ð¾ÑÑ‚Ð¸": 3793,            "ÑÑ‚Ð²ÐµÐ½": 3794,            "ÑÐ´ÐµÑ€": 3795,            "Ð³Ð¾Ð´Ð½Ñ": 3796,            "ÐºÐ°Ð·Ð°": 3797,            "ÑÐµÐ³Ð¾Ð´Ð½Ñ": 3798,            "ÑÐµÐ¹Ñ‡Ð°Ñ": 3799,            "Ñ‚Ð¾Ð»ÑŒÐºÐ¾": 3800,            "Ð²Ð¾Ð´": 3801,            "ÐµÑÑŒ": 3802,            "Ð¼Ð½Ð¾Ð³Ð¾": 3803,            "Ð±ÑƒÐ´Ñƒ": 3804,            "ÐµÐ²": 3805,            "ÐµÑÑ‚ÑŒ": 3806,            "Ñ‚Ñ€Ð¸": 3807,            "Ð¾Ð±Ñ‰ÐµÑÑ‚": 3808,            "ÑÐ²Ð»": 3809,            "Ð²Ñ‹ÑÑ‚Ñƒ": 3810,            "Ñ€ÐµÐ´": 3811,            "ÑÑ‡Ð¸Ñ‚": 3812,            "ÑÐ¸Ñ‚": 3813,            "Ð´ÐµÐ»ÐµÐ³Ð°": 3814,            "Ð»Ð¾Ð¶": 3815,            "ÑÑ‚Ð¾Ñ‚": 3816,            "Ñ„Ð¾Ñ€": 3817,            "ÐºÐ»ÑŽ": 3818,            "Ð²Ð¾Ð·Ð¼Ð¾Ð¶": 3819,            "Ð²Ð°Ð½Ð¸Ñ": 3820,            "Ð±Ð»Ð¸": 3821,            "Ð¸Ð»Ð¸": 3822,            "Ð²Ð·": 3823,            "Ð½Ð°Ñ†Ð¸Ð¹": 3824,            "ÑÐºÐ¾Ð³Ð¾": 3825,            "Ð¿Ñ€Ð¸Ð½Ñ": 3826,            "Ð¿Ð»Ð°": 3827,            "Ð¾Ñ‡": 3828,            "Ð¸Ñ‚ÑŒÑÑ": 3829,            "ÑÑ‚Ðµ": 3830,            "Ð½Ð°ÑˆÐ¸": 3831,            "ÐºÐ¾Ñ‚Ð¾Ñ€Ñ‹Ðµ": 3832,            "Ð°Ñ€": 3833,            "Ð¸Ð¼ÐµÐµÑ‚": 3834,            "ÑÐ¾Ñ‚": 3835,            "Ð·Ð½Ð°Ñ‡": 3836,            "Ð¿ÐµÑ€ÑŒ": 3837,            "ÑÐ»ÐµÐ´Ñƒ": 3838,            "ÐµÐ½Ñ‹": 3839,            "Ñ‚Ð°ÐºÐ¸": 3840,            "Ð¾Ð±ÑŠÐµÐ´Ð¸Ð½ÐµÐ½Ð½Ñ‹Ñ…": 3841,            "ÑÑ‚Ñ€Ð¾": 3842,            "Ñ‚ÐµÐ¿ÐµÑ€ÑŒ": 3843,            "Ð±Ð»Ðµ": 3844,            "Ð±Ð»Ð°Ð³Ð¾Ð´Ð°Ñ€": 3845,            "Ñ€Ð°Ð·Ð²": 3846,            "Ð°Ð½": 3847,            "Ð¶Ð¸Ð²Ð°": 3848,            "Ð¾Ñ‡ÐµÐ½ÑŒ": 3849,            "ÑÑ‚": 3850,            "Ð±ÐµÐ·": 3851,            "Ð¾Ð±ÐµÑ": 3852,            "Ð³Ñ€Ð¾": 3853,            "Ð»Ð¾ÑÑŒ": 3854,            "ÑÑ‹": 3855,            "Ð¾Ñ€Ð³Ð°Ð½Ð¸Ð·Ð°Ñ†Ð¸Ð¸": 3856,            "Ñ‡Ð»ÐµÐ½": 3857,            "Ñ‚Ð¾Ð³Ð¾": 3858,            "Ð¾Ð½Ð°Ð»ÑŒ": 3859,            "Ð¶Ð´Ð°": 3860,            "Ð²ÑÐµÑ…": 3861,            "ÑÐ²Ñ": 3862,            "Ð±Ð¾Ð»ÐµÐµ": 3863,            "ÑÐ¾Ð²": 3864,            "ÐºÐ¾Ð³Ð´Ð°": 3865,            "Ð²Ð¾Ñ‚": 3866,            "ÐºÑ€Ðµ": 3867,            "ÐºÑ€Ñ‹": 3868,            "Ð¿Ð¾ÑÑ‚Ð¾Ð¼Ñƒ": 3869,            "Ð²Ð¾Ð»ÑŒ": 3870,            "Ð¾Ð¹": 3871,            "Ð³ÐµÐ½ÐµÑ€Ð°": 3872,            "Ñ‡ÐµÐ¼": 3873,            "Ð»Ñ‹": 3874,            "Ð¿Ð¾Ð»Ð¸Ñ‚Ð¸": 3875,            "Ð²ÐµÐ½": 3876,            "ÐºÐ¾Ð½Ñ„ÐµÑ€ÐµÐ½Ñ†Ð¸Ð¸": 3877,            "Ð¿Ñ€Ð¾Ñ†ÐµÑ": 3878,            "Ð±Ñ": 3879,            "Ð¸Ñ‚Ðµ": 3880,            "Ð¾Ñ‚Ð½Ð¾": 3881,            "Ñ€Ð°Ð·Ð²Ð¸Ñ‚Ð¸": 3882,            "Ð°Ñ„": 3883,            "ÑŽÑ‰": 3884,            "Ð²Ð½Ð¾": 3885,            "Ð¼Ð¸Ñ€": 3886,            "Ð½Ð¸Ð¸": 3887,            "ÐºÐ°Ñ": 3888,            "Ð°Ñ": 3889,            "Ð¸Ñ‚ÐµÐ»ÑŒÐ½Ð¾": 3890,            "Ð²Ñ‚Ð¾": 3891,            "ÐµÐ½Ð¸ÐµÐ¼": 3892,            "Ð³ÐµÐ½ÐµÑ€Ð°Ð»ÑŒ": 3893,            "Ð¿Ñ€Ð¾Ñ‚": 3894,            "Ð²ÑÐµÐ¼": 3895,            "ÑÐ°Ð¼Ð±Ð»Ðµ": 3896,            "Ð°ÑÑÐ°Ð¼Ð±Ð»Ðµ": 3897,            "Ð¾Ð¼": 3898,            "Ð·Ð´": 3899,            "ÑÐ¼Ð¾Ñ‚": 3900,            "Ñ€ÐµÐ³Ð¸": 3901,            "Ñ‡ÐµÐ³Ð¾": 3902,            "Ð¾Ð´Ð½Ð°ÐºÐ¾": 3903,            "ÑƒÑÐ¸Ð»Ð¸Ñ": 3904,            "Ð´ÐµÐ¹ÑÑ‚Ð²Ð¸": 3905,            "Ñ‡Ð½Ð¾": 3906,            "ÑƒÑ‡Ð°": 3907,            "Ð¾Ð±Ñ€Ð°Ð·": 3908,            "Ð²Ð¾Ñ": 3909,            "ÑÑ‚Ð°": 3910,            "Ð¿ÐµÑ€ÐµÐ³Ð¾": 3911,            "Ð³Ð¾Ð²Ð¾Ñ€": 3912,            "Ð²Ð°Ð¼": 3913,            "Ð¼Ð¾Ð»Ð¾": 3914,            "Ð²Ñ€ÐµÐ¼Ñ": 3915,            "Ð´ÑŒ": 3916,            "Ñ…Ð¾Ñ‚ÐµÐ»": 3917,            "Ð³Ñ€Ñƒ": 3918,            "Ð·Ð°ÑÐ²Ð»": 3919,            "Ð¿Ñ€ÐµÐ´Ð¾ÑÑ‚Ð°": 3920,            "Ð¿Ð¾Ð»ÑŒ": 3921,            "Ð½ÐµÐµ": 3922,            "Ñ€ÐµÐ·Ð¾": 3923,            "Ð¿ÐµÑ€ÐµÐ³Ð¾Ð²Ð¾": 3924,            "Ñ€ÐµÐ·Ð¾Ð»ÑŽ": 3925,            "ÐºÑ€ÐµÑ‚": 3926,            "Ð¿Ð¾Ð´Ð´ÐµÑ€Ð¶": 3927,            "Ð¾Ð±ÐµÑÐ¿Ðµ": 3928,            "Ð½ÐµÐ³Ð¾": 3929,            "Ð¿Ñ€ÐµÐ´ÑÑ‚Ð°Ð²Ð¸Ñ‚": 3930,            "Ð½Ð°Ð´Ðµ": 3931,            "ÐºÑ€Ð¸": 3932,            "Ñ‡ÑŒ": 3933,            "Ð¿Ñ€Ð¾ÐµÐº": 3934,            "Ð»ÐµÑ‚": 3935,            "Ð´Ñ€ÑƒÐ³Ð¸": 3936,            "_": 3937,            "ØŒ": 3938,            "Ø›": 3939,            "ØŸ": 3940,            "Ø¡": 3941,            "Ø¢": 3942,            "Ø£": 3943,            "Ø¤": 3944,            "Ø¥": 3945,            "Ø¦": 3946,            "Ø§": 3947,            "Ø¨": 3948,            "Ø©": 3949,            "Øª": 3950,            "Ø«": 3951,            "Ø¬": 3952,            "Ø­": 3953,            "Ø®": 3954,            "Ø¯": 3955,            "Ø°": 3956,            "Ø±": 3957,            "Ø²": 3958,            "Ø³": 3959,            "Ø´": 3960,            "Øµ": 3961,            "Ø¶": 3962,            "Ø·": 3963,            "Ø¸": 3964,            "Ø¹": 3965,            "Øº": 3966,            "Ù€": 3967,            "Ù": 3968,            "Ù‚": 3969,            "Ùƒ": 3970,            "Ù„": 3971,            "Ù…": 3972,            "Ù†": 3973,            "Ù‡": 3974,            "Ùˆ": 3975,            "Ù‰": 3976,            "ÙŠ": 3977,            "Ù‹": 3978,            "ÙŒ": 3979,            "Ù": 3980,            "ÙŽ": 3981,            "Ù": 3982,            "Ù": 3983,            "Ù‘": 3984,            "Ù’": 3985,            "Ù°": 3986,            "Ú†": 3987,            "Ú¨": 3988,            "Ú©": 3989,            "Ú¾": 3990,            "ÛŒ": 3991,            "Û–": 3992,            "Û—": 3993,            "Û˜": 3994,            "Ûš": 3995,            "Û›": 3996,            "â€”": 3997,            "â˜­": 3998,            "ïºƒ": 3999,            "ï»»": 4000,            "Ø§Ù„": 4001,            "ÙŽØ§": 4002,            "ÙˆÙŽ": 4003,            "Ù‘ÙŽ": 4004,            "ÙÙŠ": 4005,            "Ø£ÙŽ": 4006,            "Ù„ÙŽ": 4007,            "Ù†ÙŽ": 4008,            "Ø§Ù„Ù’": 4009,            "Ù‡Ù": 4010,            "ÙÙˆ": 4011,            "Ù…Ø§": 4012,            "Ù†Ù’": 4013,            "Ù…Ù†": 4014,            "Ø¹ÙŽ": 4015,            "Ù†Ø§": 4016,            "Ù„Ø§": 4017,            "Ù…ÙŽ": 4018,            "ØªÙŽ": 4019,            "ÙÙŽ": 4020,            "Ø£Ù†": 4021,            "Ù„ÙŠ": 4022,            "Ù…Ù": 4023,            "Ø§Ù†": 4024,            "ÙÙŠ": 4025,            "Ø±ÙŽ": 4026,            "ÙŠÙŽ": 4027,            "Ù‡Ù": 4028,            "Ù…Ù’": 4029,            "Ù‚ÙŽ": 4030,            "Ø¨Ù": 4031,            "Ù„Ù‰": 4032,            "ÙŠÙ†": 4033,            "Ø¥Ù": 4034,            "Ù„Ù": 4035,            "ÙˆØ§": 4036,            "ÙƒÙŽ": 4037,            "Ù‡Ø§": 4038,            "Ù‹Ø§": 4039,            "Ù…Ù": 4040,            "ÙˆÙ†": 4041,            "Ø§Ù„Ù…": 4042,            "Ø¨ÙŽ": 4043,            "ÙŠØ§": 4044,            "Ø°Ø§": 4045,            "Ø³Ø§": 4046,            "Ø§Ù„Ù„": 4047,            "Ù…ÙŠ": 4048,            "ÙŠÙ’": 4049,            "Ø±Ø§": 4050,            "Ø±ÙŠ": 4051,            "Ù„Ùƒ": 4052,            "Ù…ÙŽØ§": 4053,            "Ù†Ù‘ÙŽ": 4054,            "Ù„Ù…": 4055,            "Ø¥Ù†": 4056,            "Ø³Øª": 4057,            "ÙˆÙ…": 4058,            "Ù‘ÙŽØ§": 4059,            "Ù„ÙŽØ§": 4060,            "Ù‡Ù…": 4061,            "Ù‘Ù": 4062,            "ÙƒÙ": 4063,            "ÙƒØ§Ù†": 4064,            "Ø³ÙŽ": 4065,            "Ø¨Ø§": 4066,            "Ø¯ÙŠ": 4067,            "Ø­ÙŽ": 4068,            "Ø¹Ù’": 4069,            "Ø¨ÙŠ": 4070,            "Ø§Ù„Ø£": 4071,            "ÙˆÙ„": 4072,            "ÙÙÙŠ": 4073,            "Ø±Ù": 4074,            "Ø¯Ø§": 4075,            "Ù…ÙÙ†Ù’": 4076,            "ÙÙˆÙ†ÙŽ": 4077,            "ÙˆÙ’": 4078,            "Ù‡ÙŽØ§": 4079,            "Ù‘Ù": 4080,            "Ø§Ù„Ø³": 4081,            "Ø§Ù„ÙŽ": 4082,            "Ù†ÙŠ": 4083,            "Ù„Ù’": 4084,            "ØªÙ": 4085,            "Ù‡Ù„": 4086,            "Ø±Ø©": 4087,            "Ø¯ÙŽ": 4088,            "Ø³Ù’": 4089,            "ØªÙ": 4090,            "Ù†ÙŽØ§": 4091,            "Ø±Ù’": 4092,            "Ø§Ù„Ù„Ù‘ÙŽ": 4093,            "Ø³Ø§Ù…ÙŠ": 4094,            "ÙƒÙ†": 4095,            "ÙƒÙ„": 4096,            "Ù‡ÙŽ": 4097,            "Ø¹ÙŽÙ„ÙŽ": 4098,            "Ø¹Ù„Ù‰": 4099,            "Ù…Ø¹": 4100,            "Ø¥Ù„Ù‰": 4101,            "Ù‚Ø¯": 4102,            "Ø§Ù„Ø±": 4103,            "ÙÙˆØ§": 4104,            "ÙŠØ±": 4105,            "Ø¹Ù†": 4106,            "ÙŠÙ": 4107,            "Ù†Ù": 4108,            "Ø¨Ù’": 4109,            "Ø§Ù„Ø­": 4110,            "Ù‡ÙÙ…Ù’": 4111,            "Ù‚Ø§": 4112,            "Ø°Ù‡": 4113,            "Ø§Ù„Øª": 4114,            "ÙÙŠÙ†ÙŽ": 4115,            "Ø¬ÙŽ": 4116,            "Ù‡Ø°Ø§": 4117,            "Ø¹Ø¯": 4118,            "Ø§Ù„Ø¹": 4119,            "Ø¯Ù’": 4120,            "Ù‚ÙŽØ§Ù„ÙŽ": 4121,            "Ø±Ù": 4122,            "ÙŠÙ…": 4123,            "ÙŠØ©": 4124,            "Ù†Ù": 4125,            "Ø®ÙŽ": 4126,            "Ø±Ø¨": 4127,            "Ø§Ù„Ùƒ": 4128,            "ÙˆÙŽØ§": 4129,            "Ø£Ù†Ø§": 4130,            "Ø©Ù": 4131,            "Ø§Ù„Ù†": 4132,            "Ø­Ø¯": 4133,            "Ø¹Ù": 4134,            "ØªØ§": 4135,            "Ù‡Ùˆ": 4136,            "ÙØ§": 4137,            "Ø¹Ø§": 4138,            "Ø§Ù„Ø´": 4139,            "Ù„Ù": 4140,            "ÙŠØª": 4141,            "Ø°ÙŽØ§": 4142,            "ÙŠØ¹": 4143,            "Ø§Ù„Ø°": 4144,            "Ø­Ù’": 4145,            "Ø§Ù„Øµ": 4146,            "Ø¥ÙÙ†Ù‘ÙŽ": 4147,            "Ø¬Ø§": 4148,            "Ø¹Ù„ÙŠ": 4149,            "ÙƒÙŽØ§": 4150,            "Ø¨Ù": 4151,            "ØªØ¹": 4152,            "ÙˆÙ‚": 4153,            "Ù…Ù„": 4154,            "Ù„Ù‘ÙŽ": 4155,            "ÙŠØ¯": 4156,            "Ø£Ø®": 4157,            "Ø±Ù": 4158,            "ØªÙŠ": 4159,            "Ø§Ù„Ù": 4160,            "Ù‘Ø§": 4161,            "Ø°Ù„Ùƒ": 4162,            "Ø£ÙŽÙ†Ù’": 4163,            "Ø³Ù": 4164,            "ØªÙˆÙ…": 4165,            "Ù…Ø±": 4166,            "Ù…ÙŽÙ†Ù’": 4167,            "Ø¨Ù„": 4168,            "Ø§Ù„Ù‚": 4169,            "Ø§Ù„Ù„Ù‡": 4170,            "ÙÙŠÙŽ": 4171,            "ÙƒÙ…": 4172,            "Ø°ÙŽ": 4173,            "Ø¹Ù„": 4174,            "Ø­Ø¨": 4175,            "Ø³ÙŠ": 4176,            "Ø¹Ù": 4177,            "Ø§Ù„Ø¬": 4178,            "Ø§Ù„Ø¯": 4179,            "Ø´ÙŽ": 4180,            "ØªÙƒ": 4181,            "ÙÙ’": 4182,            "ØµÙŽ": 4183,            "Ù„Ù„": 4184,            "Ø¯Ù": 4185,            "Ø¨Ø±": 4186,            "ÙÙ": 4187,            "ØªÙ‡": 4188,            "Ø£Ø¹": 4189,            "ØªÙ’": 4190,            "Ù‚Ù’": 4191,            "Ø§Ù„Ù’Ø£ÙŽ": 4192,            "Ø¦Ù": 4193,            "Ø¹ÙŽÙ†Ù’": 4194,            "ÙˆØ±": 4195,            "Ø­Ø§": 4196,            "Ø§Ù„Ù‘ÙŽ": 4197,            "Ù…Øª": 4198,            "ÙØ±": 4199,            "Ø¯Ù": 4200,            "Ù‡Ù†Ø§": 4201,            "ÙˆÙŽØ£ÙŽ": 4202,            "ØªØ¨": 4203,            "Ø©Ù": 4204,            "Ø£ÙŠ": 4205,            "Ø³Ø¨": 4206,            "Ø±ÙŠØ¯": 4207,            "ÙˆØ¬": 4208,            "ÙƒÙÙ…Ù’": 4209,            "Ø­Ù": 4210,            "ÙƒÙ’": 4211,            "Ø¯Ø±": 4212,            "ÙŽØ§Ø¡": 4213,            "Ù‡Ø°Ù‡": 4214,            "Ø§Ù„Ø·": 4215,            "Ø§Ù„Ù’Ù…Ù": 4216,            "Ø¯Ø©": 4217,            "Ù‚Ù„": 4218,            "ØºÙŽ": 4219,            "ÙŠÙˆÙ…": 4220,            "Ø§Ù„Ù‘ÙŽØ°": 4221,            "ÙƒØ±": 4222,            "ØªØ±": 4223,            "ÙƒÙ": 4224,            "ÙƒÙŠ": 4225,            "Ø¹ÙŽÙ„ÙŽÙ‰": 4226,            "Ø±ÙŽØ¨": 4227,            "Ø¹Ø©": 4228,            "Ù‚Ù": 4229,            "Ø¬Ù’": 4230,            "ÙØ¶": 4231,            "Ù„Ø©": 4232,            "Ù‡Ù’": 4233,            "Ø±ÙŽØ§": 4234,            "ÙˆÙŽÙ„ÙŽ": 4235,            "Ø§Ù„Ù’Ù…ÙŽ": 4236,            "Ø£ÙŽÙ†Ù‘ÙŽ": 4237,            "ÙŠÙŽØ§": 4238,            "Ø£Ù": 4239,            "Ø´ÙŠ": 4240,            "Ø§Ù„Ù„Ù‘ÙŽÙ‡Ù": 4241,            "Ù„ÙŽÙ‰": 4242,            "Ù‚Ù": 4243,            "Ø£Øª": 4244,            "Ø¹ÙŽÙ„ÙŽÙŠÙ’": 4245,            "Ø§Ù„Ù„Ù‘ÙŽÙ‡Ù": 4246,            "Ø§Ù„Ø¨": 4247,            "Ø¶ÙŽ": 4248,            "Ø©Ù‹": 4249,            "Ù‚ÙŠ": 4250,            "Ø§Ø±": 4251,            "Ø¨Ø¯": 4252,            "Ø®Ù’": 4253,            "Ø³Ù’ØªÙŽ": 4254,            "Ø·ÙŽ": 4255,            "Ù‚ÙŽØ¯Ù’": 4256,            "Ø°Ù‡Ø¨": 4257,            "Ø£Ù…": 4258,            "Ù…Ø§Ø°Ø§": 4259,            "ÙˆÙŽØ¥Ù": 4260,            "Ø©ÙŒ": 4261,            "ÙˆÙ†ÙŽ": 4262,            "Ù„ÙŠÙ„Ù‰": 4263,            "ÙˆÙ„Ø§": 4264,            "Ø­Ù": 4265,            "Ù‡ÙŠ": 4266,            "ØµÙ„": 4267,            "Ø§Ù„Ø®": 4268,            "ÙˆØ¯": 4269,            "Ù„ÙŠØ³": 4270,            "Ù„Ø¯ÙŠ": 4271,            "Ù‚Ø§Ù„": 4272,            "ÙƒÙŽØ§Ù†ÙŽ": 4273,            "Ù…Ù‘ÙŽ": 4274,            "Ø­ÙŠ": 4275,            "ØªÙ…": 4276,            "Ù„Ù†": 4277,            "ÙˆÙŽÙ„ÙŽØ§": 4278,            "Ø¨Ø¹": 4279,            "ÙŠÙ…ÙƒÙ†": 4280,            "Ø³Ù": 4281,            "Ø©ÙŽ": 4282,            "Ø­Øª": 4283,            "Ø±Ù‹Ø§": 4284,            "ÙƒØ§": 4285,            "Ø´Ø§": 4286,            "Ù‡ÙÙ…Ù’": 4287,            "Ù„ÙŽÙ‡Ù": 4288,            "Ø²ÙŽ": 4289,            "Ø¯Ø§Ù‹": 4290,            "Ù…Ø³": 4291,            "ÙƒØ«": 4292,            "Ø§Ù„Ù’Ø¹ÙŽ": 4293,            "Ø¬Ù": 4294,            "ØµÙ’": 4295,            "ÙÙŽØ§": 4296,            "Ù„Ù‡": 4297,            "ÙˆÙŠ": 4298,            "Ø¹ÙŽØ§": 4299,            "Ù‡ÙÙˆÙŽ": 4300,            "Ø¨ÙÙŠ": 4301,            "Ø¨ÙŽØ§": 4302,            "Ø£Ø³": 4303,            "Ø«ÙŽ": 4304,            "Ù„ÙÙŠ": 4305,            "Ø±Ø¶": 4306,            "Ø§Ù„Ø±Ù‘ÙŽ": 4307,            "Ù„ÙÙƒÙŽ": 4308,            "ØªÙ‘ÙŽ": 4309,            "ÙÙ": 4310,            "Ù‚Ø©": 4311,            "ÙØ¹Ù„": 4312,            "Ù…ÙÙ†": 4313,            "Ø§Ù„Ø¢": 4314,            "Ø«Ù": 4315,            "Ø³Ù…": 4316,            "Ù…Ù‘ÙŽØ§": 4317,            "Ø¨ÙÙ‡Ù": 4318,            "ØªÙ‚": 4319,            "Ø®Ø±": 4320,            "Ù„Ù‚Ø¯": 4321,            "Ø®Ù„": 4322,            "Ø´Ø±": 4323,            "Ø£Ù†Øª": 4324,            "Ù„Ù‘ÙŽØ§": 4325,            "Ø³Ù†": 4326,            "Ø§Ù„Ø³Ù‘ÙŽ": 4327,            "Ø§Ù„Ø°ÙŠ": 4328,            "Ø³ÙŽØ§": 4329,            "ÙˆÙ…Ø§": 4330,            "Ø²Ù„": 4331,            "ÙˆØ¨": 4332,            "Ø£Ù’": 4333,            "Ø¥Ø°Ø§": 4334,            "Ø±ÙÙŠ": 4335,            "Ø­Ø©": 4336,            "Ù†ÙÙŠ": 4337,            "Ø§Ù„Ù’Ø­ÙŽ": 4338,            "ÙˆÙŽÙ‚ÙŽØ§Ù„ÙŽ": 4339,            "Ø¨Ù‡": 4340,            "Ø©Ù": 4341,            "Ø³Ø£": 4342,            "Ø±ÙŒ": 4343,            "Ø¨Ø§Ù„": 4344,            "Ù…Ø©": 4345,            "Ø´Ù’": 4346,            "ÙˆØª": 4347,            "Ø¹Ù†Ø¯": 4348,            "ÙØ³": 4349,            "Ø¨ÙŽØ¹Ù’": 4350,            "Ù‡Ø±": 4351,            "Ù‚Ø·": 4352,            "Ø£Ø­": 4353,            "Ø¥Ù†Ù‡": 4354,            "ÙˆØ¹": 4355,            "ÙØª": 4356,            "ØºØ§": 4357,            "Ù‡Ù†Ø§Ùƒ": 4358,            "Ø¨Øª": 4359,            "Ù…ÙÙ†ÙŽ": 4360,            "Ø³Ø±": 4361,            "Ø°ÙŽÙ„ÙÙƒÙŽ": 4362,            "Ø±Ø³": 4363,            "Ø­Ø¯Ø«": 4364,            "ØºÙ’": 4365,            "Ù‘ÙÙŠ": 4366,            "Ø§Ù„Ø¥": 4367,            "ÙˆÙŽÙŠÙŽ": 4368,            "Ø¬Ù„": 4369,            "Ø§Ø³Øª": 4370,            "Ù‚ÙÙŠ": 4371,            "Ø¹Ø¨": 4372,            "ÙˆØ³": 4373,            "ÙŠØ´": 4374,            "Ø§Ù„Ù‘ÙŽØ°ÙÙŠÙ†ÙŽ": 4375,            "ØªØ§Ø¨": 4376,            "Ø¯ÙÙŠ": 4377,            "Ø¬Ø¨": 4378,            "ÙƒÙˆÙ†": 4379,            "Ø¨Ù†": 4380,            "Ø§Ù„Ø«": 4381,            "Ù„ÙŽÙŠÙ’": 4382,            "Ø¨Ø¹Ø¯": 4383,            "ÙˆÙŽØ§Ù„Ù’": 4384,            "ÙÙŽØ£ÙŽ": 4385,            "Ø¹Ù…": 4386,            "Ù‡ÙÙ…": 4387,            "ØªÙ†": 4388,            "Ø°Ù’": 4389,            "Ø£Øµ": 4390,            "Ø£ÙŠÙ†": 4391,            "Ø±ÙŽØ¨Ù‘Ù": 4392,            "Ø§Ù„Ø°ÙŠÙ†": 4393,            "Ø¥ÙÙ†": 4394,            "Ø¨ÙŠÙ†": 4395,            "Ø¬Ù": 4396,            "Ø¹ÙŽÙ„ÙŽÙŠÙ’Ù‡Ù": 4397,            "Ø­ÙŽØ§": 4398,            "Ù„Ùˆ": 4399,            "Ø³ØªØ·": 4400,            "Ø¸Ø±": 4401,            "Ù„ÙŽÙ…Ù’": 4402,            "Ø¡Ù": 4403,            "ÙƒÙÙ„": 4404,            "Ø·Ù„": 4405,            "ØªÙŽØ§": 4406,            "Ø¶Ù": 4407,            "ÙƒÙ†Øª": 4408,            "Ù„Ù‹Ø§": 4409,            "Ù…ÙŒ": 4410,            "Ù‚Ø¨Ù„": 4411,            "Ù€Ù€": 4412,            "Ø°Ù": 4413,            "Ù‚ÙŽÙˆÙ’": 4414,            "ØµÙ": 4415,            "Ù…Ù‹Ø§": 4416,            "ÙƒØ§Ù†Øª": 4417,            "ØµØ§": 4418,            "ÙŠÙ‚": 4419,            "Ø§Ù„Ù": 4420,            "Ø§Ù„Ù†Ø§": 4421,            "Ù…Ù": 4422,            "Ø¥ÙÙ†Ù’": 4423,            "Ø§Ù„Ù†Ù‘ÙŽ": 4424,            "Ø¬Ø¯": 4425,            "ÙˆÙŽÙ…ÙŽØ§": 4426,            "ØªØª": 4427,            "Ø¨Ø­": 4428,            "Ù…ÙƒØ§Ù†": 4429,            "ÙƒÙŠÙ": 4430,            "Ù‘Ø©": 4431,            "Ø§Ù„Ø§": 4432,            "Ø¬ÙŽØ§": 4433,            "Ø£Ùˆ": 4434,            "Ø³Ø§Ø¹Ø¯": 4435,            "Ø¶Ù": 4436,            "Ø¥Ù„Ø§": 4437,            "Ø±Ø§Ù‹": 4438,            "Ù‚ÙŽØ§": 4439,            "Ø±Ø£": 4440,            "Ø¹Øª": 4441,            "Ø£Ø­Ø¯": 4442,            "Ù‡Ø¯": 4443,            "Ø¶Ø§": 4444,            "Ø·Ø±": 4445,            "Ø£Ù‚": 4446,            "Ù…Ø§Ø¡": 4447,            "Ø¯Ù‘ÙŽ": 4448,            "Ø§Ù„Ø¨Ø§": 4449,            "Ù…ÙÙˆ": 4450,            "Ø£ÙŽÙˆÙ’": 4451,            "Ø·Ø§": 4452,            "Ù‚ÙÙˆ": 4453,            "Ø®Ù": 4454,            "ØªÙ„": 4455,            "Ø³ØªØ·ÙŠØ¹": 4456,            "Ø¯ÙŽØ§": 4457,            "Ø§Ù„Ù†Ù‘ÙŽØ§": 4458,            "Ø¥Ù„ÙŽÙ‰": 4459,            "ÙˆÙŽØªÙŽ": 4460,            "Ù‡ÙŽØ°ÙŽØ§": 4461,            "Ø¨Ø©": 4462,            "Ø¹Ù„ÙŠÙƒ": 4463,            "Ø¬Ø±": 4464,            "Ø§Ù„Ù…Ù†": 4465,            "Ø²Ø§": 4466,            "Ø±Ù": 4467,            "Ø¯Ø¹": 4468,            "Ù‘Ù‹Ø§": 4469,            "Ø³Ø©": 4470,            "Ø«ÙÙ…Ù‘ÙŽ": 4471,            "Ø´ÙŠØ¡": 4472,            "Ø§Ù„Øº": 4473,            "ØªØ­": 4474,            "Ø±ÙÙˆÙ†ÙŽ": 4475,            "Ø§Ù„ÙŠÙˆÙ…": 4476,            "Ù…ÙÙŠ": 4477,            "Ù†ÙÙˆØ§": 4478,            "Ø£Ø±": 4479,            "ØªÙÙ…Ù’": 4480,            "Ø¹Ø±": 4481,            "ÙŠÙ": 4482,            "Ø£Ø¨": 4483,            "Ø¯Ù‹Ø§": 4484,            "ØµÙŽØ§": 4485,            "Ø§Ù„ØªÙ‘ÙŽ": 4486,            "Ø£Ø±ÙŠØ¯": 4487,            "Ø§Ù„Ø²": 4488,            "ÙŠÙŽÙˆÙ’": 4489,            "Ø¥Ù„ÙŠ": 4490,            "Ø¬ÙŠ": 4491,            "ÙŠÙŽØ¹Ù’": 4492,            "ÙØ¶Ù„": 4493,            "Ø§Ù„Ø¥Ù†": 4494,            "Ø£Ù†Ù‡": 4495,            "1": 4496,            "2": 4497,            "3": 4498,            "4": 4499,            "5": 4500,            "Â·": 4501,            "Ã—": 4502,            "Ìƒ": 4503,            "ÌŒ": 4504,            "Îµ": 4505,            "Î»": 4506,            "Î¼": 4507,            "â€¢": 4508,            "â€§": 4509,            "â”€": 4510,            "â–¡": 4511,            "ã€": 4512,            "ã€‚": 4513,            "ã€ˆ": 4514,            "ã€‰": 4515,            "ã€Š": 4516,            "ã€‹": 4517,            "ã€Œ": 4518,            "ã€": 4519,            "ã€Ž": 4520,            "ã€": 4521,            "ã‚¢": 4522,            "ã‚ª": 4523,            "ã‚«": 4524,            "ãƒ": 4525,            "ãƒ‰": 4526,            "ãƒ™": 4527,            "ãƒ£": 4528,            "ãƒ¤": 4529,            "ãƒ³": 4530,            "ãƒ»": 4531,            "ãƒ¼": 4532,            "ã„Ÿ": 4533,            "ï¼": 4534,            "ï¼ˆ": 4535,            "ï¼‰": 4536,            "ï¼Œ": 4537,            "ï¼": 4538,            "ï¼": 4539,            "ï¼š": 4540,            "ï¼›": 4541,            "ï¼Ÿ": 4542,            "ï½": 4543,            "i4": 4544,            "zh": 4545,            "i2": 4546,            "ng1": 4547,            "u4": 4548,            "i1": 4549,            "ng2": 4550,            "u3": 4551,            "de5": 4552,            "e4": 4553,            "i3": 4554,            "ng4": 4555,            "an4": 4556,            "shi4": 4557,            "an2": 4558,            "u2": 4559,            "u1": 4560,            "ng3": 4561,            "a1": 4562,            "an1": 4563,            "e2": 4564,            "a4": 4565,            "ei4": 4566,            "ong1": 4567,            "ai4": 4568,            "ao4": 4569,            "ang1": 4570,            "an3": 4571,            "wei4": 4572,            "uo2": 4573,            "n1": 4574,            "en2": 4575,            "ao3": 4576,            "e1": 4577,            "qi": 4578,            "eng2": 4579,            "zho": 4580,            "ang3": 4581,            "ang4": 4582,            "ang2": 4583,            "uo4": 4584,            "ge4": 4585,            "yi1": 4586,            "guo2": 4587,            "a3": 4588,            "he2": 4589,            "e3": 4590,            "yi2": 4591,            "di4": 4592,            "zhong1": 4593,            "bu4": 4594,            "ai2": 4595,            "n2": 4596,            "zai4": 4597,            "shi2": 4598,            "eng1": 4599,            "ren2": 4600,            "ong2": 4601,            "xian4": 4602,            "xu": 4603,            "n4": 4604,            "li4": 4605,            "en4": 4606,            "yu2": 4607,            "ei2": 4608,            "yi2ge4": 4609,            "ou4": 4610,            "ei3": 4611,            "ui4": 4612,            "a2": 4613,            "you3": 4614,            "ao1": 4615,            "da4": 4616,            "cheng2": 4617,            "en1": 4618,            "eng4": 4619,            "yi4": 4620,            "si1": 4621,            "zhi4": 4622,            "jia1": 4623,            "yuan2": 4624,            "ta1": 4625,            "de5yi2ge4": 4626,            "ke1": 4627,            "shu3": 4628,            "xi1": 4629,            "ji2": 4630,            "ao2": 4631,            "ou3": 4632,            "ong4": 4633,            "xia4": 4634,            "ai1": 4635,            "gong1": 4636,            "zhi1": 4637,            "en3": 4638,            "wei2": 4639,            "xue2": 4640,            "qu1": 4641,            "zhou1": 4642,            "er3": 4643,            "ming2": 4644,            "zhong3": 4645,            "li3": 4646,            "wu4": 4647,            "yi3": 4648,            "uo1": 4649,            "e5": 4650,            "ji4": 4651,            "xing2": 4652,            "jian4": 4653,            "hua4": 4654,            "yu3": 4655,            "uo3": 4656,            "ji1": 4657,            "ai3": 4658,            "zuo4": 4659,            "hou4": 4660,            "hui4": 4661,            "ei1": 4662,            "nian2": 4663,            "qi2": 4664,            "dao4": 4665,            "sheng1": 4666,            "de2": 4667,            "dai4": 4668,            "uan2": 4669,            "zhe4": 4670,            "zheng4": 4671,            "ben3": 4672,            "shang4": 4673,            "zhu3": 4674,            "bei4": 4675,            "ye4": 4676,            "chu1": 4677,            "zhan4": 4678,            "le5": 4679,            "lai2": 4680,            "shi3": 4681,            "nan2": 4682,            "ren4": 4683,            "you2": 4684,            "ke4": 4685,            "ba1": 4686,            "fu4": 4687,            "dui4": 4688,            "ya4": 4689,            "mei3": 4690,            "zi4": 4691,            "xin1": 4692,            "jing1": 4693,            "zhu": 4694,            "n3": 4695,            "yong4": 4696,            "mu4": 4697,            "jiao4": 4698,            "ye3": 4699,            "jin4": 4700,            "bian4": 4701,            "lu4": 4702,            "qi1": 4703,            "she4": 4704,            "xiang1": 4705,            "ong3": 4706,            "shu4": 4707,            "dong4": 4708,            "suo3": 4709,            "guan1": 4710,            "san1": 4711,            "te4": 4712,            "duo1": 4713,            "fu2": 4714,            "min2": 4715,            "la1": 4716,            "zhi2": 4717,            "zhen4": 4718,            "ou1": 4719,            "wu3": 4720,            "ma3": 4721,            "i5": 4722,            "zi5": 4723,            "ju4": 4724,            "er4": 4725,            "yao4": 4726,            "xia4de5yi2ge4": 4727,            "si4": 4728,            "tu2": 4729,            "shan1": 4730,            "zui4": 4731,            "yin1": 4732,            "er2": 4733,            "tong2": 4734,            "dong1": 4735,            "yu4": 4736,            "yan2": 4737,            "qian2": 4738,            "shu3xia4de5yi2ge4": 4739,            "jun1": 4740,            "ke3": 4741,            "wen2": 4742,            "fa3": 4743,            "luo2": 4744,            "zhu4": 4745,            "xi4": 4746,            "kou3": 4747,            "bei3": 4748,            "jian1": 4749,            "fa1": 4750,            "dian4": 4751,            "jiang1": 4752,            "wei4yu2": 4753,            "xiang4": 4754,            "zhi3": 4755,            "eng3": 4756,            "fang1": 4757,            "lan2": 4758,            "shu": 4759,            "ri4": 4760,            "lian2": 4761,            "shou3": 4762,            "qiu2": 4763,            "jin1": 4764,            "huo4": 4765,            "shu3xia4de5yi2ge4zhong3": 4766,            "fen1": 4767,            "nei4": 4768,            "gai1": 4769,            "mei3guo2": 4770,            "un2": 4771,            "ge2": 4772,            "bao3": 4773,            "qing1": 4774,            "gao1": 4775,            "tai2": 4776,            "xiao3": 4777,            "jie2": 4778,            "tian1": 4779,            "chang2": 4780,            "quan2": 4781,            "lie4": 4782,            "hai3": 4783,            "fei1": 4784,            "ti3": 4785,            "jue2": 4786,            "ou2": 4787,            "ci3": 4788,            "zu2": 4789,            "ni2": 4790,            "biao3": 4791,            "zhong1guo2": 4792,            "du4": 4793,            "yue4": 4794,            "xing4": 4795,            "sheng4": 4796,            "che1": 4797,            "dan1": 4798,            "jie1": 4799,            "lin2": 4800,            "ping2": 4801,            "fu3": 4802,            "gu3": 4803,            "jie4": 4804,            "v3": 4805,            "sheng3": 4806,            "na4": 4807,            "yuan4": 4808,            "zhang3": 4809,            "guan3": 4810,            "dao3": 4811,            "zu3": 4812,            "ding4": 4813,            "dian3": 4814,            "ceng2": 4815,            "ren2kou3": 4816,            "tai4": 4817,            "tong1": 4818,            "guo4": 4819,            "neng2": 4820,            "chang3": 4821,            "hua2": 4822,            "liu2": 4823,            "ying1": 4824,            "xiao4": 4825,            "ci4": 4826,            "bian4hua4": 4827,            "liang3": 4828,            "gong4": 4829,            "zhong4": 4830,            "de5yi1": 4831,            "se4": 4832,            "kai1": 4833,            "wang2": 4834,            "jiu4": 4835,            "shi1": 4836,            "shou4": 4837,            "mei2": 4838,            "feng1": 4839,            "ze2": 4840,            "tu2shi4": 4841,            "ti2": 4842,            "qi4": 4843,            "jiu3": 4844,            "shen1": 4845,            "zhe3": 4846,            "ren2kou3bian4hua4": 4847,            "ren2kou3bian4hua4tu2shi4": 4848,            "di4qu1": 4849,            "yang2": 4850,            "men5": 4851,            "long2": 4852,            "bing4": 4853,            "chan3": 4854,            "zhu1": 4855,            "wei3": 4856,            "wai4": 4857,            "xing1": 4858,            "bo1": 4859,            "bi3": 4860,            "tang2": 4861,            "hua1": 4862,            "bo2": 4863,            "shui3": 4864,            "shu1": 4865,            "dou1": 4866,            "sai4": 4867,            "chao2": 4868,            "bi4": 4869,            "ling2": 4870,            "lei4": 4871,            "da4xue2": 4872,            "fen4": 4873,            "shu3de5": 4874,            "mu3": 4875,            "jiao1": 4876,            "dang1": 4877,            "cheng1": 4878,            "tong3": 4879,            "nv3": 4880,            "qi3": 4881,            "yan3": 4882,            "mian4": 4883,            "luo4": 4884,            "jing4": 4885,            "ge1": 4886,            "ru4": 4887,            "dan4": 4888,            "ri4ben3": 4889,            "pu3": 4890,            "yun4": 4891,            "huang2": 4892,            "wo3": 4893,            "lv": 4894,            "hai2": 4895,            "shi4yi1": 4896,            "xie1": 4897,            "ying3": 4898,            "wu2": 4899,            "shen2": 4900,            "wang3": 4901,            "guang3": 4902,            "liu4": 4903,            "su4": 4904,            "shi4zhen4": 4905,            "can1": 4906,            "cao3": 4907,            "xia2": 4908,            "ka3": 4909,            "da2": 4910,            "hu4": 4911,            "ban4": 4912,            "dang3": 4913,            "hu2": 4914,            "zong3": 4915,            "deng3": 4916,            "de5yi2ge4shi4zhen4": 4917,            "chuan2": 4918,            "mo4": 4919,            "zhang1": 4920,            "ban1": 4921,            "mo2": 4922,            "cha2": 4923,            "ce4": 4924,            "zhu3yao4": 4925,            "tou2": 4926,            "ju2": 4927,            "shi4wei4yu2": 4928,            "sa4": 4929,            "un1": 4930,            "ke3yi3": 4931,            "du1": 4932,            "han4": 4933,            "liang4": 4934,            "sha1": 4935,            "jia3": 4936,            "zi1": 4937,            "lv4": 4938,            "fu1": 4939,            "xian1": 4940,            "xu4": 4941,            "guang1": 4942,            "meng2": 4943,            "bao4": 4944,            "you4": 4945,            "rong2": 4946,            "zhi1yi1": 4947,            "wei1": 4948,            "mao2": 4949,            "guo2jia1": 4950,            "cong2": 4951,            "gou4": 4952,            "tie3": 4953,            "zhen1": 4954,            "du2": 4955,            "bian1": 4956,            "ci2": 4957,            "qu3": 4958,            "fan4": 4959,            "xiang3": 4960,            "men2": 4961,            "ju1": 4962,            "hong2": 4963,            "zi3": 4964,            "ta1men5": 4965,            "ji3": 4966,            "zong1": 4967,            "zhou1de5yi2ge4shi4zhen4": 4968,            "tuan2": 4969,            "jing3": 4970,            "gong1si1": 4971,            "xie4": 4972,            "li2": 4973,            "li4shi3": 4974,            "bao1": 4975,            "gang3": 4976,            "gui1": 4977,            "zheng1": 4978,            "zhi2wu4": 4979,            "ta1de5": 4980,            "pin3": 4981,            "zhuan1": 4982,            "chong2": 4983,            "shi3yong4": 4984,            "wa3": 4985,            "shuo1": 4986,            "chuan1": 4987,            "lei2": 4988,            "wan1": 4989,            "huo2": 4990,            "su1": 4991,            "zao3": 4992,            "gai3": 4993,            "qu4": 4994,            "gu4": 4995,            "xi2": 4996,            "hang2": 4997,            "ying4": 4998,            "cun1": 4999,            "gen1": 5000,            "ying2": 5001,            "ting2": 5002,            "cheng2shi4": 5003,            "jiang3": 5004,            "ling3": 5005,            "lun2": 5006,            "bu4fen4": 5007,            "deng1": 5008,            "xuan3": 5009,            "dong4wu4": 5010,            "de2guo2": 5011,            "xian3": 5012,            "fan3": 5013,            "zhe5": 5014,            "han2": 5015,            "hao4": 5016,            "mi4": 5017,            "ran2": 5018,            "qin1": 5019,            "tiao2": 5020,            "zhan3": 5021,            "[ar]": 5022,            "[zh-cn]": 5023,            "Â¡": 5024,            "eÌ": 5025,            "shi": 5026,            "tsu": 5027,            "teki": 5028,            "nai": 5029,            "aru": 5030,            "uu": 5031,            "kai": 5032,            "shite": 5033,            "mono": 5034,            "koto": 5035,            "kara": 5036,            "shita": 5037,            "suru": 5038,            "masu": 5039,            "tai": 5040,            "ware": 5041,            "shin": 5042,            "oku": 5043,            "yuu": 5044,            "iru": 5045,            "jiko": 5046,            "desu": 5047,            "rare": 5048,            "shou": 5049,            "sha": 5050,            "sekai": 5051,            "kyou": 5052,            "mashita": 5053,            "nara": 5054,            "kei": 5055,            "ita": 5056,            "ari": 5057,            "itsu": 5058,            "kono": 5059,            "naka": 5060,            "chou": 5061,            "sore": 5062,            "naru": 5063,            "gaku": 5064,            "reba": 5065,            "hito": 5066,            "sai": 5067,            "nan": 5068,            "dai": 5069,            "tsuku": 5070,            "shiki": 5071,            "sare": 5072,            "naku": 5073,            "jun": 5074,            "kaku": 5075,            "zai": 5076,            "wata": 5077,            "shuu": 5078,            "ii": 5079,            "kare": 5080,            "shii": 5081,            "made": 5082,            "sho": 5083,            "kereba": 5084,            "shika": 5085,            "ichi": 5086,            "deki": 5087,            "nin": 5088,            "wareware": 5089,            "nakereba": 5090,            "oite": 5091,            "yaku": 5092,            "mujun": 5093,            "yoku": 5094,            "butsu": 5095,            "omo": 5096,            "gae": 5097,            "naranai": 5098,            "tachi": 5099,            "chuu": 5100,            "kangae": 5101,            "toki": 5102,            "koro": 5103,            "mujunteki": 5104,            "naga": 5105,            "jin": 5106,            "shima": 5107,            "iku": 5108,            "imasu": 5109,            "hon": 5110,            "kae": 5111,            "kore": 5112,            "kita": 5113,            "datta": 5114,            "jitsu": 5115,            "mae": 5116,            "toku": 5117,            "douitsu": 5118,            "ritsu": 5119,            "kyuu": 5120,            "hyou": 5121,            "rareta": 5122,            "keisei": 5123,            "kkan": 5124,            "rareru": 5125,            "mou": 5126,            "doko": 5127,            "ryou": 5128,            "dake": 5129,            "nakatta": 5130,            "soko": 5131,            "tabe": 5132,            "hana": 5133,            "fuku": 5134,            "yasu": 5135,            "wataku": 5136,            "yama": 5137,            "kyo": 5138,            "genzai": 5139,            "boku": 5140,            "ata": 5141,            "kawa": 5142,            "masen": 5143,            "juu": 5144,            "natte": 5145,            "watakushi": 5146,            "yotte": 5147,            "hai": 5148,            "jishin": 5149,            "rete": 5150,            "oka": 5151,            "kagaku": 5152,            "natta": 5153,            "karu": 5154,            "nari": 5155,            "mata": 5156,            "kuru": 5157,            "gai": 5158,            "kari": 5159,            "shakai": 5160,            "koui": 5161,            "yori": 5162,            "setsu": 5163,            "reru": 5164,            "tokoro": 5165,            "jutsu": 5166,            "saku": 5167,            "ttai": 5168,            "ningen": 5169,            "tame": 5170,            "kankyou": 5171,            "ooku": 5172,            "watashi": 5173,            "tsukuru": 5174,            "sugi": 5175,            "jibun": 5176,            "shitsu": 5177,            "keru": 5178,            "kishi": 5179,            "shikashi": 5180,            "moto": 5181,            "mari": 5182,            "itte": 5183,            "deshita": 5184,            "nde": 5185,            "arimasu": 5186,            "koe": 5187,            "zettai": 5188,            "kkanteki": 5189,            "rekishi": 5190,            "dekiru": 5191,            "tsuka": 5192,            "itta": 5193,            "kobutsu": 5194,            "miru": 5195,            "shoku": 5196,            "shimasu": 5197,            "gijutsu": 5198,            "gyou": 5199,            "joushiki": 5200,            "atta": 5201,            "hodo": 5202,            "koko": 5203,            "tsukurareta": 5204,            "zoku": 5205,            "hitei": 5206,            "koku": 5207,            "rekishiteki": 5208,            "kete": 5209,            "kako": 5210,            "nagara": 5211,            "kakaru": 5212,            "shutai": 5213,            "haji": 5214,            "taku": 5215,            "douitsuteki": 5216,            "mete": 5217,            "tsuu": 5218,            "sarete": 5219,            "genjitsu": 5220,            "bai": 5221,            "nawa": 5222,            "jikan": 5223,            "waru": 5224,            "rt": 5225,            "atsu": 5226,            "soku": 5227,            "kouiteki": 5228,            "kata": 5229,            "tetsu": 5230,            "gawa": 5231,            "kedo": 5232,            "reta": 5233,            "sayou": 5234,            "tteru": 5235,            "tori": 5236,            "kimi": 5237,            "mura": 5238,            "sareru": 5239,            "machi": 5240,            "kya": 5241,            "osa": 5242,            "konna": 5243,            "aku": 5244,            "sareta": 5245,            "ipp": 5246,            "shiku": 5247,            "uchi": 5248,            "hitotsu": 5249,            "hatara": 5250,            "tachiba": 5251,            "shiro": 5252,            "katachi": 5253,            "tomo": 5254,            "ete": 5255,            "meru": 5256,            "nichi": 5257,            "dare": 5258,            "katta": 5259,            "eru": 5260,            "suki": 5261,            "ooki": 5262,            "maru": 5263,            "moku": 5264,            "oko": 5265,            "kangaerareru": 5266,            "oto": 5267,            "tanni": 5268,            "tada": 5269,            "taiteki": 5270,            "motte": 5271,            "kinou": 5272,            "shinai": 5273,            "kki": 5274,            "tari": 5275,            "ranai": 5276,            "kkou": 5277,            "mirai": 5278,            "ppon": 5279,            "goto": 5280,            "hitsu": 5281,            "teru": 5282,            "mochi": 5283,            "katsu": 5284,            "nyuu": 5285,            "zuka": 5286,            "tsuite": 5287,            "nomi": 5288,            "sugu": 5289,            "kuda": 5290,            "tetsugaku": 5291,            "ika": 5292,            "ronri": 5293,            "oki": 5294,            "nippon": 5295,            "shimashita": 5296,            "chishiki": 5297,            "chokkanteki": 5298,            "suko": 5299,            "kuu": 5300,            "arou": 5301,            "katte": 5302,            "kuri": 5303,            "inai": 5304,            "hyougen": 5305,            "ishiki": 5306,            "doku": 5307,            "atte": 5308,            "atara": 5309,            "wari": 5310,            "kao": 5311,            "seisan": 5312,            "hanashi": 5313,            "kake": 5314,            "naji": 5315,            "sunawa": 5316,            "sunawachi": 5317,            "ugo": 5318,            "suu": 5319,            "bara": 5320,            "hiro": 5321,            "iwa": 5322,            "betsu": 5323,            "yoi": 5324,            "seru": 5325,            "shiteru": 5326,            "rarete": 5327,            "toshi": 5328,            "seki": 5329,            "tairitsu": 5330,            "wakara": 5331,            "tokyo": 5332,            "kka": 5333,            "kyoku": 5334,            "iro": 5335,            "mite": 5336,            "saki": 5337,            "kanji": 5338,            "mita": 5339,            "sube": 5340,            "ryoku": 5341,            "matta": 5342,            "kudasai": 5343,            "omoi": 5344,            "wareru": 5345,            "hitsuyou": 5346,            "kashi": 5347,            "renai": 5348,            "kankei": 5349,            "gatte": 5350,            "ochi": 5351,            "motsu": 5352,            "sonzai": 5353,            "taishite": 5354,            "ame": 5355,            "seimei": 5356,            "kano": 5357,            "giri": 5358,            "kangaeru": 5359,            "yue": 5360,            "asa": 5361,            "onaji": 5362,            "yoru": 5363,            "niku": 5364,            "osaka": 5365,            "sukoshi": 5366,            "tama": 5367,            "kanojo": 5368,            "kite": 5369,            "mondai": 5370,            "amari": 5371,            "eki": 5372,            "kojin": 5373,            "haya": 5374,            "dete": 5375,            "atarashii": 5376,            "awa": 5377,            "gakkou": 5378,            "tsuzu": 5379,            "shukan": 5380,            "imashita": 5381,            "atae": 5382,            "darou": 5383,            "hataraku": 5384,            "gata": 5385,            "dachi": 5386,            "matsu": 5387,            "arimasen": 5388,            "seibutsu": 5389,            "mitsu": 5390,            "heya": 5391,            "yasui": 5392,            "deni": 5393,            "noko": 5394,            "haha": 5395,            "domo": 5396,            "kami": 5397,            "sudeni": 5398,            "nao": 5399,            "raku": 5400,            "ike": 5401,            "meta": 5402,            "kodomo": 5403,            "soshite": 5404,            "game": 5405,            "bakari": 5406,            "tote": 5407,            "hatsu": 5408,            "mise": 5409,            "mokuteki": 5410,            "dakara": 5411,            "[ja]": 5412,            "Å‘": 5413,            "Å±": 5414,            "ã": 5415,            "ãª": 5416,            "ã‚“": 5417,            "í¬": 5418,            "ï¿½": 5419,            "gy": 5420,            "eg": 5421,            "cs": 5422,            "Ã¡l": 5423,            "egy": 5424,            "Ã¡t": 5425,            "ott": 5426,            "ett": 5427,            "meg": 5428,            "hogy": 5429,            "Ã©g": 5430,            "Ã³l": 5431,            "nek": 5432,            "volt": 5433,            "Ã¡g": 5434,            "nk": 5435,            "Ã©k": 5436,            "Ã­t": 5437,            "Ã¡k": 5438,            "ud": 5439,            "szer": 5440,            "mind": 5441,            "oz": 5442,            "Ã©p": 5443,            "Ã©rt": 5444,            "mond": 5445,            "szt": 5446,            "nak": 5447,            "Å‘l": 5448,            "csak": 5449,            "oly": 5450,            "Ã¡ll": 5451,            "Ã¡ny": 5452,            "mint": 5453,            "mÃ¡r": 5454,            "Ã¶tt": 5455,            "nagy": 5456,            "Ã©sz": 5457,            "azt": 5458,            "elÅ‘": 5459,            "tud": 5460,            "Ã©ny": 5461,            "Ã¡z": 5462,            "mÃ©g": 5463,            "kÃ¶z": 5464,            "ely": 5465,            "sÃ©g": 5466,            "hoz": 5467,            "uk": 5468,            "kez": 5469,            "Ã¡m": 5470,            "aj": 5471,            "unk": 5472,            "vagy": 5473,            "szem": 5474,            "ember": 5475,            "fog": 5476,            "mert": 5477,            "Ã¶s": 5478,            "sÃ¡g": 5479,            "leg": 5480,            "Ã¼nk": 5481,            "hÃ¡t": 5482,            "ony": 5483,            "ezt": 5484,            "minden": 5485,            "Ã¼lt": 5486,            "jÃ³": 5487,            "kis": 5488,            "Ã¡j": 5489,            "Ãºgy": 5490,            "most": 5491,            "Ã­r": 5492,            "itt": 5493,            "elt": 5494,            "mondta": 5495,            "kell": 5496,            "Ã¡lt": 5497,            "Ã©rd": 5498,            "tÃ¶": 5499,            "vÃ¡r": 5500,            "lÃ¡t": 5501,            "Å‘k": 5502,            "vet": 5503,            "utÃ¡n": 5504,            "kÃ©t": 5505,            "nap": 5506,            "Ã­v": 5507,            "Ã¡ly": 5508,            "vÃ©g": 5509,            "Ã¶k": 5510,            "dul": 5511,            "nÃ©z": 5512,            "Ã¡ban": 5513,            "kÃ¼l": 5514,            "akkor": 5515,            "szÃ©l": 5516,            "Ãºj": 5517,            "olyan": 5518,            "ked": 5519,            "hely": 5520,            "tÃ¶r": 5521,            "bÃ³l": 5522,            "elm": 5523,            "Ã¡ra": 5524,            "lÃ³": 5525,            "volna": 5526,            "lehet": 5527,            "ebb": 5528,            "sok": 5529,            "olt": 5530,            "eket": 5531,            "bor": 5532,            "fej": 5533,            "gond": 5534,            "akar": 5535,            "fÃ©l": 5536,            "Ãºl": 5537,            "otta": 5538,            "valami": 5539,            "jel": 5540,            "Ã©d": 5541,            "arc": 5542,            "hall": 5543,            "fÃ¶l": 5544,            "Ã¡ba": 5545,            "olg": 5546,            "kir": 5547,            "old": 5548,            "kÃ©rd": 5549,            "jÃ¡r": 5550,            "Ãºr": 5551,            "zs": 5552,            "Ã©let": 5553,            "jÃ¡t": 5554,            "ov": 5555,            "Ã©z": 5556,            "vil": 5557,            "Å‘r": 5558,            "Ã¶g": 5559,            "lesz": 5560,            "koz": 5561,            "Ã¡bb": 5562,            "kirÃ¡ly": 5563,            "eng": 5564,            "igaz": 5565,            "haj": 5566,            "kod": 5567,            "rÃ³l": 5568,            "tÃ¶bb": 5569,            "szÃ³": 5570,            "Ã©ben": 5571,            "Ã¶t": 5572,            "nyi": 5573,            "szÃ³l": 5574,            "gondol": 5575,            "egÃ©sz": 5576,            "Ã­gy": 5577,            "Å‘s": 5578,            "obb": 5579,            "osan": 5580,            "bÅ‘l": 5581,            "abb": 5582,            "Å‘t": 5583,            "nÃ¡l": 5584,            "kÃ©p": 5585,            "aztÃ¡n": 5586,            "tart": 5587,            "beszÃ©l": 5588,            "elÅ‘tt": 5589,            "aszt": 5590,            "maj": 5591,            "kÃ¶r": 5592,            "hang": 5593,            "Ã­z": 5594,            "incs": 5595,            "Ã©v": 5596,            "Ã³d": 5597,            "Ã³k": 5598,            "hozz": 5599,            "okat": 5600,            "nagyon": 5601,            "hÃ¡z": 5602,            "ped": 5603,            "ezte": 5604,            "etlen": 5605,            "neki": 5606,            "majd": 5607,            "szony": 5608,            "Ã¡nak": 5609,            "felÃ©": 5610,            "egyszer": 5611,            "adt": 5612,            "gyer": 5613,            "amikor": 5614,            "foly": 5615,            "szak": 5616,            "Å‘d": 5617,            "hÃº": 5618,            "Ã¡sz": 5619,            "amely": 5620,            "Ã©re": 5621,            "ilyen": 5622,            "oda": 5623,            "jÃ¡k": 5624,            "tÃ¡r": 5625,            "Ã¡val": 5626,            "lak": 5627,            "gyan": 5628,            "Ã©ly": 5629,            "Ãºt": 5630,            "kezd": 5631,            "mell": 5632,            "mikor": 5633,            "hez": 5634,            "valÃ³": 5635,            "szeret": 5636,            "rend": 5637,            "vissza": 5638,            "fÅ‘": 5639,            "asszony": 5640,            "rÅ‘l": 5641,            "pedig": 5642,            "szÃ©p": 5643,            "tÃ¡k": 5644,            "Ã¶v": 5645,            "vilÃ¡g": 5646,            "maga": 5647,            "szik": 5648,            "Ã©j": 5649,            "Ã©nt": 5650,            "jÃ¶tt": 5651,            "szÃ­": 5652,            "gat": 5653,            "ettem": 5654,            "hÃ¡ny": 5655,            "Ã¡st": 5656,            "ahol": 5657,            "Å‘ket": 5658,            "hÃ¡r": 5659,            "nÅ‘": 5660,            "csi": 5661,            "talÃ¡l": 5662,            "elte": 5663,            "lÃ¡tt": 5664,            "tÃ¶rt": 5665,            "hagy": 5666,            "esz": 5667,            "nÃ©l": 5668,            "kut": 5669,            "lÃ¡ny": 5670,            "amit": 5671,            "sÅ‘": 5672,            "ellen": 5673,            "magÃ¡t": 5674,            "ugyan": 5675,            "kÃ¼lÃ¶n": 5676,            "asz": 5677,            "mindig": 5678,            "lÃ©p": 5679,            "talÃ¡n": 5680,            "szor": 5681,            "illan": 5682,            "nincs": 5683,            "vagyok": 5684,            "telen": 5685,            "ismer": 5686,            "isten": 5687,            "Ã­tott": 5688,            "jobb": 5689,            "ves": 5690,            "dult": 5691,            "juk": 5692,            "szen": 5693,            "Ã¶m": 5694,            "lett": 5695,            "egyik": 5696,            "bÃ¡r": 5697,            "szi": 5698,            "szÃ­v": 5699,            "azon": 5700,            "eszt": 5701,            "fÃ¶ld": 5702,            "kuty": 5703,            "pillan": 5704,            "fÃ©r": 5705,            "tÅ‘l": 5706,            "tÅ±": 5707,            "Ã©be": 5708,            "tÃ¶tt": 5709,            "barÃ¡t": 5710,            "Ã­g": 5711,            "ahogy": 5712,            "eh": 5713,            "ep": 5714,            "jelent": 5715,            "tat": 5716,            "szeg": 5717,            "mintha": 5718,            "egyen": 5719,            "szab": 5720,            "bizony": 5721,            "jon": 5722,            "Ã¶reg": 5723,            "dolg": 5724,            "csap": 5725,            "tiszt": 5726,            "Ã¡llt": 5727,            "ancs": 5728,            "idÅ‘": 5729,            "Ã¼gy": 5730,            "miÃ©rt": 5731,            "Ã³t": 5732,            "csin": 5733,            "Ã©nek": 5734,            "vÃ©r": 5735,            "jÃ³l": 5736,            "alatt": 5737,            "mely": 5738,            "semmi": 5739,            "nyug": 5740,            "vÃ¡g": 5741,            "kÃ¶vet": 5742,            "Ã¶ssze": 5743,            "mad": 5744,            "acs": 5745,            "fiÃº": 5746,            "mÃ¡sik": 5747,            "jÃ¶n": 5748,            "szÃ¡m": 5749,            "rÃ©sz": 5750,            "kÃ©r": 5751,            "Ã©vel": 5752,            "[hu]": 5753,            "%": 5754,            "0": 5755,            "6": 5756,            "7": 5757,            "8": 5758,            "9": 5759,            "A": 5760,            "B": 5761,            "C": 5762,            "D": 5763,            "E": 5764,            "F": 5765,            "G": 5766,            "H": 5767,            "I": 5768,            "J": 5769,            "K": 5770,            "L": 5771,            "M": 5772,            "N": 5773,            "O": 5774,            "P": 5775,            "Q": 5776,            "R": 5777,            "S": 5778,            "T": 5779,            "U": 5780,            "V": 5781,            "W": 5782,            "X": 5783,            "Y": 5784,            "Z": 5785,            "Å": 5786,            "Î±": 5787,            "Ï‚": 5788,            "â™¥": 5789,            "ã‹": 5790,            "ã‚º": 5791,            "å› ": 5792,            "å›½": 5793,            "æ€Ž": 5794,            "æŠ±": 5795,            "æŽ¨": 5796,            "æœ‰": 5797,            "æ¨£": 5798,            "ç‚º": 5799,            "ç¾¤": 5800,            "éº¼": 5801,            "eo": 5802,            "eul": 5803,            "eun": 5804,            "eon": 5805,            "ae": 5806,            "yeon": 5807,            "yeo": 5808,            "ui": 5809,            "hae": 5810,            "geo": 5811,            "neun": 5812,            "ssda": 5813,            "seo": 5814,            "eong": 5815,            "kk": 5816,            "jeo": 5817,            "deul": 5818,            "eum": 5819,            "yeong": 5820,            "geos": 5821,            "hag": 5822,            "aneun": 5823,            "iss": 5824,            "dae": 5825,            "eob": 5826,            "eol": 5827,            "geu": 5828,            "jeong": 5829,            "sae": 5830,            "doe": 5831,            "geul": 5832,            "eulo": 5833,            "bn": 5834,            "sang": 5835,            "bnida": 5836,            "haneun": 5837,            "jeog": 5838,            "saeng": 5839,            "ineun": 5840,            "anh": 5841,            "salam": 5842,            "eom": 5843,            "nae": 5844,            "gwa": 5845,            "yeol": 5846,            "eseo": 5847,            "myeon": 5848,            "ttae": 5849,            "hw": 5850,            "eobs": 5851,            "jang": 5852,            "gw": 5853,            "ileul": 5854,            "yeog": 5855,            "jeon": 5856,            "sig": 5857,            "jag": 5858,            "hago": 5859,            "deun": 5860,            "seong": 5861,            "gag": 5862,            "ham": 5863,            "dang": 5864,            "leul": 5865,            "sil": 5866,            "dong": 5867,            "handa": 5868,            "eossda": 5869,            "aeg": 5870,            "seon": 5871,            "haessda": 5872,            "issda": 5873,            "ege": 5874,            "mul": 5875,            "jung": 5876,            "jig": 5877,            "issneun": 5878,            "geun": 5879,            "seubnida": 5880,            "won": 5881,            "daneun": 5882,            "eoh": 5883,            "deo": 5884,            "gam": 5885,            "jal": 5886,            "haeng": 5887,            "yang": 5888,            "bang": 5889,            "jae": 5890,            "saenggag": 5891,            "hage": 5892,            "sog": 5893,            "eoss": 5894,            "jasin": 5895,            "jil": 5896,            "eog": 5897,            "gyeong": 5898,            "gong": 5899,            "deon": 5900,            "haess": 5901,            "eung": 5902,            "joh": 5903,            "nal": 5904,            "myeong": 5905,            "eona": 5906,            "igo": 5907,            "gyeol": 5908,            "yag": 5909,            "gwan": 5910,            "uli": 5911,            "yong": 5912,            "lyeo": 5913,            "jog": 5914,            "eohge": 5915,            "bog": 5916,            "tong": 5917,            "manh": 5918,            "jeol": 5919,            "geol": 5920,            "aga": 5921,            "naneun": 5922,            "uneun": 5923,            "cheol": 5924,            "dol": 5925,            "bad": 5926,            "hamyeon": 5927,            "yeossda": 5928,            "ibnida": 5929,            "gye": 5930,            "eos": 5931,            "hwal": 5932,            "salamdeul": 5933,            "jiman": 5934,            "dangsin": 5935,            "jib": 5936,            "ttaemun": 5937,            "ib": 5938,            "eneun": 5939,            "eug": 5940,            "jeom": 5941,            "geuleon": 5942,            "hwa": 5943,            "assda": 5944,            "beob": 5945,            "bae": 5946,            "yeoss": 5947,            "chin": 5948,            "chaeg": 5949,            "geon": 5950,            "naega": 5951,            "iga": 5952,            "sigan": 5953,            "gil": 5954,            "hyeon": 5955,            "lyeog": 5956,            "gug": 5957,            "pyeon": 5958,            "wae": 5959,            "jul": 5960,            "seul": 5961,            "deung": 5962,            "hajiman": 5963,            "eumyeon": 5964,            "pil": 5965,            "nyeon": 5966,            "tae": 5967,            "pyo": 5968,            "jineun": 5969,            "beon": 5970,            "hada": 5971,            "seol": 5972,            "sip": 5973,            "daleun": 5974,            "salm": 5975,            "gyo": 5976,            "cheon": 5977,            "hagi": 5978,            "cheoleom": 5979,            "gal": 5980,            "ila": 5981,            "kkaji": 5982,            "anhneun": 5983,            "habnida": 5984,            "tteon": 5985,            "haeseo": 5986,            "doenda": 5987,            "ttal": 5988,            "ilo": 5989,            "seub": 5990,            "byeon": 5991,            "myeo": 5992,            "beol": 5993,            "jeung": 5994,            "chim": 5995,            "hwang": 5996,            "euneun": 5997,            "jong": 5998,            "boda": 5999,            "nol": 6000,            "neom": 6001,            "buteo": 6002,            "jigeum": 6003,            "eobsda": 6004,            "daelo": 6005,            "yul": 6006,            "pyeong": 6007,            "seoneun": 6008,            "salang": 6009,            "seut": 6010,            "heom": 6011,            "hyang": 6012,            "gwang": 6013,            "eobsneun": 6014,            "hwag": 6015,            "gess": 6016,            "jagi": 6017,            "ileon": 6018,            "wihae": 6019,            "daehan": 6020,            "gaji": 6021,            "meog": 6022,            "jyeo": 6023,            "chaj": 6024,            "byeong": 6025,            "eod": 6026,            "gyeo": 6027,            "eoji": 6028,            "gul": 6029,            "modeun": 6030,            "insaeng": 6031,            "geulae": 6032,            "sasil": 6033,            "sib": 6034,            "chal": 6035,            "ilago": 6036,            "geum": 6037,            "doeneun": 6038,            "bol": 6039,            "gajang": 6040,            "geuligo": 6041,            "hyeong": 6042,            "haengbog": 6043,            "chul": 6044,            "chae": 6045,            "mang": 6046,            "dam": 6047,            "choe": 6048,            "sijag": 6049,            "cheong": 6050,            "ilaneun": 6051,            "ulineun": 6052,            "aen": 6053,            "kke": 6054,            "munje": 6055,            "teu": 6056,            "geuneun": 6057,            "bge": 6058,            "cheo": 6059,            "baeg": 6060,            "jug": 6061,            "sangdae": 6062,            "geugeos": 6063,            "dog": 6064,            "eus": 6065,            "jab": 6066,            "hyeo": 6067,            "tteohge": 6068,            "chil": 6069,            "swi": 6070,            "jileul": 6071,            "chang": 6072,            "ganeun": 6073,            "iji": 6074,            "dago": 6075,            "yohan": 6076,            "teug": 6077,            "ppun": 6078,            "aleul": 6079,            "haengdong": 6080,            "sesang": 6081,            "edo": 6082,            "mandeul": 6083,            "amyeon": 6084,            "kkae": 6085,            "bag": 6086,            "ideul": 6087,            "pum": 6088,            "meol": 6089,            "neul": 6090,            "hamkke": 6091,            "chung": 6092,            "dab": 6093,            "yug": 6094,            "sag": 6095,            "gwangye": 6096,            "ileohge": 6097,            "balo": 6098,            "neunde": 6099,            "hamyeo": 6100,            "geuleoh": 6101,            "anila": 6102,            "bangbeob": 6103,            "dasi": 6104,            "byeol": 6105,            "gyeon": 6106,            "gamjeong": 6107,            "oneul": 6108,            "janeun": 6109,            "yeom": 6110,            "lago": 6111,            "igi": 6112,            "hwan": 6113,            "teul": 6114,            "eoseo": 6115,            "sik": 6116,            "jaga": 6117,            "geuleom": 6118,            "geuleona": 6119,            "jeongdo": 6120,            "gyeog": 6121,            "geuleohge": 6122,            "geudeul": 6123,            "eut": 6124,            "imyeon": 6125,            "jjae": 6126,            "keun": 6127,            "isang": 6128,            "malhaessda": 6129,            "euge": 6130,            "nop": 6131,            "ingan": 6132,            "bomyeon": 6133,            "taeg": 6134,            "dwi": 6135,            "saneun": 6136,            "wan": 6137,            "anhgo": 6138,            "nugu": 6139,            "sung": 6140,            "damyeon": 6141,            "adeul": 6142,            "peul": 6143,            "ttala": 6144,            "geosdo": 6145,            "aji": 6146,            "meon": 6147,            "eumyeo": 6148,            "dolog": 6149,            "neung": 6150,            "modu": 6151,            "[ko]": 6152,            "\u0014": 6153,            "\u0016": 6154,            "$": 6155,            "*": 6156,            "|": 6157,            "Â°": 6158,            "Âº": 6159,            "à¤": 6160,            "à¤‚": 6161,            "à¤ƒ": 6162,            "à¤…": 6163,            "à¤†": 6164,            "à¤‡": 6165,            "à¤ˆ": 6166,            "à¤‰": 6167,            "à¤Š": 6168,            "à¤‹": 6169,            "à¤Ž": 6170,            "à¤": 6171,            "à¤": 6172,            "à¤‘": 6173,            "à¤’": 6174,            "à¤“": 6175,            "à¤”": 6176,            "à¤•": 6177,            "à¤–": 6178,            "à¤—": 6179,            "à¤˜": 6180,            "à¤™": 6181,            "à¤š": 6182,            "à¤›": 6183,            "à¤œ": 6184,            "à¤": 6185,            "à¤ž": 6186,            "à¤Ÿ": 6187,            "à¤ ": 6188,            "à¤¡": 6189,            "à¤¢": 6190,            "à¤£": 6191,            "à¤¤": 6192,            "à¤¥": 6193,            "à¤¦": 6194,            "à¤§": 6195,            "à¤¨": 6196,            "à¤©": 6197,            "à¤ª": 6198,            "à¤«": 6199,            "à¤¬": 6200,            "à¤­": 6201,            "à¤®": 6202,            "à¤¯": 6203,            "à¤°": 6204,            "à¤±": 6205,            "à¤²": 6206,            "à¤³": 6207,            "à¤µ": 6208,            "à¤¶": 6209,            "à¤·": 6210,            "à¤¸": 6211,            "à¤¹": 6212,            "à¤¼": 6213,            "à¤¾": 6214,            "à¤¿": 6215,            "à¥€": 6216,            "à¥": 6217,            "à¥‚": 6218,            "à¥ƒ": 6219,            "à¥„": 6220,            "à¥…": 6221,            "à¥†": 6222,            "à¥‡": 6223,            "à¥ˆ": 6224,            "à¥‰": 6225,            "à¥Š": 6226,            "à¥‹": 6227,            "à¥Œ": 6228,            "à¥": 6229,            "à¥": 6230,            "à¥–": 6231,            "à¥˜": 6232,            "à¥™": 6233,            "à¥š": 6234,            "à¥›": 6235,            "à¥œ": 6236,            "à¥": 6237,            "à¥ž": 6238,            "à¥Ÿ": 6239,            "à¥ ": 6240,            "à¥¤": 6241,            "à¥¥": 6242,            "à¥¦": 6243,            "à¥§": 6244,            "à¥¨": 6245,            "à¥©": 6246,            "à¥ª": 6247,            "à¥«": 6248,            "à¥¬": 6249,            "à¥­": 6250,            "à¥®": 6251,            "à¥¯": 6252,            "à¥°": 6253,            "à¥²": 6254,            "â€‹": 6255,            "â€Œ": 6256,            "â€": 6257,            "â€Ž": 6258,            "â‚¹": 6259,            "à¤•à¥‡": 6260,            "à¤¹à¥ˆ": 6261,            "à¥‡à¤‚": 6262,            "à¥à¤°": 6263,            "à¤¾à¤°": 6264,            "à¤¨à¥‡": 6265,            "à¤¯à¤¾": 6266,            "à¤®à¥‡à¤‚": 6267,            "à¤¸à¥‡": 6268,            "à¤•à¥€": 6269,            "à¤•à¤¾": 6270,            "à¥‹à¤‚": 6271,            "à¤¤à¤¾": 6272,            "à¤•à¤°": 6273,            "à¤¸à¥": 6274,            "à¤•à¤¿": 6275,            "à¤•à¥‹": 6276,            "à¤°à¥": 6277,            "à¤¨à¤¾": 6278,            "à¤•à¥": 6279,            "à¤¹à¥€": 6280,            "à¤”à¤°": 6281,            "à¤ªà¤°": 6282,            "à¤¤à¥‡": 6283,            "à¤¹à¥‹": 6284,            "à¤ªà¥à¤°": 6285,            "à¤¾à¤¨": 6286,            "à¥à¤¯": 6287,            "à¤²à¤¾": 6288,            "à¤µà¤¾": 6289,            "à¤²à¥‡": 6290,            "à¤¸à¤¾": 6291,            "à¤¹à¥ˆà¤‚": 6292,            "à¤²à¤¿": 6293,            "à¤œà¤¾": 6294,            "à¤¹à¤¾": 6295,            "à¤­à¥€": 6296,            "à¤µà¤¿": 6297,            "à¤‡à¤¸": 6298,            "à¤¤à¥€": 6299,            "à¤¨à¥": 6300,            "à¤°à¤¾": 6301,            "à¤®à¤¾": 6302,            "à¤¦à¥‡": 6303,            "à¤¦à¤¿": 6304,            "à¤¬à¤¾": 6305,            "à¤¤à¤¿": 6306,            "à¤¥à¤¾": 6307,            "à¤¨à¤¿": 6308,            "à¤•à¤¾à¤°": 6309,            "à¤à¤•": 6310,            "à¤¹à¥€à¤‚": 6311,            "à¤¹à¥": 6312,            "à¤‚à¤—": 6313,            "à¥ˆà¤‚": 6314,            "à¤¨à¥€": 6315,            "à¤¸à¥€": 6316,            "à¤…à¤ª": 6317,            "à¤¤à¥": 6318,            "à¤¨à¤¹à¥€à¤‚": 6319,            "à¤°à¥€": 6320,            "à¤®à¥‡": 6321,            "à¤®à¥": 6322,            "à¤¿à¤¤": 6323,            "à¤¤à¥‹": 6324,            "à¤ªà¤¾": 6325,            "à¤²à¥€": 6326,            "à¤²à¤¿à¤": 6327,            "à¤—à¤¾": 6328,            "à¤²à¥": 6329,            "à¤°à¤¹": 6330,            "à¤°à¥‡": 6331,            "à¤•à¥à¤·": 6332,            "à¤®à¥ˆà¤‚": 6333,            "à¤¸à¤®": 6334,            "à¤‰à¤¸": 6335,            "à¤œà¤¿": 6336,            "à¤¤à¥à¤°": 6337,            "à¤®à¤¿": 6338,            "à¤šà¤¾": 6339,            "à¥‹à¤—": 6340,            "à¤¸à¤‚": 6341,            "à¤¦à¥": 6342,            "à¤¸à¤¿": 6343,            "à¤†à¤ª": 6344,            "à¤¤à¥": 6345,            "à¤¦à¤¾": 6346,            "à¤•à¥": 6347,            "à¤¯à¥‹à¤‚": 6348,            "à¤µà¥‡": 6349,            "à¤œà¥€": 6350,            "à¥à¤¯à¤¾": 6351,            "à¤‰à¤¨": 6352,            "à¤¿à¤•": 6353,            "à¤¯à¥‡": 6354,            "à¤­à¤¾": 6355,            "à¥à¤Ÿ": 6356,            "à¤¹à¤®": 6357,            "à¤¸à¥à¤Ÿ": 6358,            "à¤¶à¤¾": 6359,            "à¤¡à¤¼": 6360,            "à¤‚à¤¦": 6361,            "à¤–à¤¾": 6362,            "à¤®à¥": 6363,            "à¤¶à¥": 6364,            "à¤¯à¤¹": 6365,            "à¤¸à¤•": 6366,            "à¤ªà¥‚": 6367,            "à¤•à¤¿à¤¯à¤¾": 6368,            "à¤…à¤ªà¤¨à¥‡": 6369,            "à¤°à¥‚": 6370,            "à¤¸à¥": 6371,            "à¤®à¥€": 6372,            "à¤¹à¤¿": 6373,            "à¤œà¥‹": 6374,            "à¤¥à¥‡": 6375,            "à¤°à¤¿": 6376,            "à¤¦à¥€": 6377,            "à¤¥à¥€": 6378,            "à¤—à¥€": 6379,            "à¤²à¥‹à¤—": 6380,            "à¤—à¤¯à¤¾": 6381,            "à¤¤à¤°": 6382,            "à¤¨à¥à¤¹": 6383,            "à¤šà¥": 6384,            "à¤µà¤¾à¤°": 6385,            "à¤¬à¥€": 6386,            "à¤ªà¥": 6387,            "à¤¦à¥‹": 6388,            "à¤Ÿà¥€": 6389,            "à¤¶à¤¿": 6390,            "à¤•à¤°à¤¨à¥‡": 6391,            "à¤—à¥‡": 6392,            "à¥ˆà¤¸à¥‡": 6393,            "à¤‡à¤¨": 6394,            "à¤‚à¤¡": 6395,            "à¤¸à¤¾à¤¥": 6396,            "à¤ªà¥": 6397,            "à¤¬à¥‡": 6398,            "à¤¬à¤¾à¤°": 6399,            "à¤µà¥€": 6400,            "à¤…à¤¨": 6401,            "à¤¹à¤°": 6402,            "à¤‰à¤¨à¥à¤¹": 6403,            "à¤¹à¥‹à¤¤à¤¾": 6404,            "à¤œà¤¬": 6405,            "à¤•à¥à¤›": 6406,            "à¤®à¤¾à¤¨": 6407,            "à¤•à¥à¤°": 6408,            "à¤¬à¤¿": 6409,            "à¤ªà¤¹": 6410,            "à¤«à¤¿": 6411,            "à¤¸à¤°": 6412,            "à¤¾à¤°à¥€": 6413,            "à¤°à¥‹": 6414,            "à¤¦à¥‚": 6415,            "à¤•à¤¹à¤¾": 6416,            "à¤¤à¤•": 6417,            "à¤¶à¤¨": 6418,            "à¤¬à¥": 6419,            "à¤¸à¥à¤¥": 6420,            "à¤µà¤¹": 6421,            "à¤¬à¤¾à¤¦": 6422,            "à¤“à¤‚": 6423,            "à¤—à¥": 6424,            "à¤œà¥": 6425,            "à¥à¤°à¥‡": 6426,            "à¤—à¤°": 6427,            "à¤°à¤¹à¥‡": 6428,            "à¤µà¤°à¥": 6429,            "à¤¹à¥‚": 6430,            "à¤¾à¤°à¥": 6431,            "à¤ªà¥€": 6432,            "à¤¬à¤¹à¥": 6433,            "à¤®à¥à¤": 6434,            "à¥à¤°à¤¾": 6435,            "à¤¦à¤¿à¤¯à¤¾": 6436,            "à¤¸à¤¬": 6437,            "à¤•à¤°à¤¤à¥‡": 6438,            "à¤…à¤ªà¤¨à¥€": 6439,            "à¤¬à¤¹à¥à¤¤": 6440,            "à¤•à¤¹": 6441,            "à¤Ÿà¥‡": 6442,            "à¤¹à¥à¤": 6443,            "à¤•à¤¿à¤¸à¥€": 6444,            "à¤°à¤¹à¤¾": 6445,            "à¤·à¥à¤Ÿ": 6446,            "à¤œà¤¼": 6447,            "à¤¬à¤¨à¤¾": 6448,            "à¤¸à¥‹": 6449,            "à¤¡à¤¿": 6450,            "à¤•à¥‹à¤ˆ": 6451,            "à¤µà¥à¤¯": 6452,            "à¤¬à¤¾à¤¤": 6453,            "à¤°à¥": 6454,            "à¤µà¥‹": 6455,            "à¤®à¥à¤à¥‡": 6456,            "à¤¦à¥à¤§": 6457,            "à¤šà¤¾à¤°": 6458,            "à¤®à¥‡à¤°à¥‡": 6459,            "à¤µà¤°": 6460,            "à¥à¤°à¥€": 6461,            "à¤œà¤¾à¤¤à¤¾": 6462,            "à¤¨à¥‹à¤‚": 6463,            "à¤ªà¥à¤°à¤¾": 6464,            "à¤¦à¥‡à¤–": 6465,            "à¤Ÿà¤¾": 6466,            "à¤•à¥à¤¯à¤¾": 6467,            "à¤…à¤§": 6468,            "à¤²à¤—": 6469,            "à¤²à¥‹": 6470,            "à¤ªà¤¿": 6471,            "à¤¯à¥": 6472,            "à¤šà¥‡": 6473,            "à¤œà¤¿à¤¸": 6474,            "à¤‚à¤¤": 6475,            "à¤¾à¤¨à¥€": 6476,            "à¤ªà¥ˆ": 6477,            "à¤œà¤¨": 6478,            "à¤¾à¤°à¥‡": 6479,            "à¤šà¥€": 6480,            "à¤®à¤¿à¤²": 6481,            "à¤¦à¥": 6482,            "à¤¦à¥‡à¤¶": 6483,            "à¤šà¥à¤›": 6484,            "à¤·à¥": 6485,            "à¤¸à¥‚": 6486,            "à¤–à¥‡": 6487,            "à¤šà¥": 6488,            "à¤¿à¤¯à¤¾": 6489,            "à¤²à¤—à¤¾": 6490,            "à¤¬à¥": 6491,            "à¤‰à¤¨à¤•à¥‡": 6492,            "à¤œà¥à¤ž": 6493,            "à¤•à¥à¤·à¤¾": 6494,            "à¤¤à¤°à¤¹": 6495,            "à¥à¤¯à¤¾à¤¦à¤¾": 6496,            "à¤µà¤¾à¤²à¥‡": 6497,            "à¤ªà¥‚à¤°à¥": 6498,            "à¤®à¥ˆà¤‚à¤¨à¥‡": 6499,            "à¤•à¤¾à¤®": 6500,            "à¤°à¥‚à¤ª": 6501,            "à¤¹à¥‹à¤¤à¥€": 6502,            "à¤‰à¤ª": 6503,            "à¤œà¤¾à¤¨": 6504,            "à¤ªà¥à¤°à¤•à¤¾à¤°": 6505,            "à¤­à¤¾à¤°": 6506,            "à¤®à¤¨": 6507,            "à¤¹à¥à¤†": 6508,            "à¤Ÿà¤°": 6509,            "à¤¹à¥‚à¤": 6510,            "à¤ªà¤°à¤¿": 6511,            "à¤ªà¤¾à¤¸": 6512,            "à¤…à¤¨à¥": 6513,            "à¤°à¤¾à¤œ": 6514,            "à¤²à¥‹à¤—à¥‹à¤‚": 6515,            "à¤…à¤¬": 6516,            "à¤¸à¤®à¤": 6517,            "à¤¡à¥€": 6518,            "à¤®à¥Œ": 6519,            "à¤¶à¥": 6520,            "à¤šà¤¿": 6521,            "à¤ªà¥‡": 6522,            "à¤•à¥ƒ": 6523,            "à¤¸à¤•à¤¤à¥‡": 6524,            "à¤®à¤¹": 6525,            "à¤¯à¥‹à¤—": 6526,            "à¤¦à¤°à¥": 6527,            "à¤‰à¤¸à¥‡": 6528,            "à¤‚à¤§": 6529,            "à¤¡à¤¾": 6530,            "à¤œà¤¾à¤": 6531,            "à¤¬à¥‹": 6532,            "à¥‚à¤²": 6533,            "à¤®à¥‹": 6534,            "à¥‹à¤‚à¤¨à¥‡": 6535,            "à¤‚à¤¸": 6536,            "à¤¤à¥à¤®": 6537,            "à¤ªà¤¹à¤²à¥‡": 6538,            "à¤¬à¤¤à¤¾": 6539,            "à¤¤à¤¥à¤¾": 6540,            "à¤¯à¥‹": 6541,            "à¤—à¤ˆ": 6542,            "à¤‰à¤¤à¥": 6543,            "à¤¸à¤•à¤¤à¤¾": 6544,            "à¤•à¤®": 6545,            "à¤œà¥à¤¯à¤¾à¤¦à¤¾": 6546,            "à¤°à¤–": 6547,            "à¤¸à¤®à¤¯": 6548,            "à¤¾à¤°à¤¾": 6549,            "à¤…à¤—à¤°": 6550,            "à¤¸à¥à¤¤": 6551,            "à¤šà¤²": 6552,            "à¤«à¤¿à¤°": 6553,            "à¤µà¤¾à¤°à¤¾": 6554,            "à¤•à¤°à¤¨à¤¾": 6555,            "à¤¶à¥€": 6556,            "à¤—à¤": 6557,            "à¤¬à¤¨": 6558,            "à¥Œà¤°": 6559,            "à¤¹à¥‹à¤¨à¥‡": 6560,            "à¤šà¤¾à¤¹": 6561,            "à¤–à¥": 6562,            "à¤¹à¤¾à¤": 6563,            "à¤‰à¤¨à¥à¤¹à¥‡à¤‚": 6564,            "à¤‰à¤¨à¥à¤¹à¥‹à¤‚à¤¨à¥‡": 6565,            "à¤›à¥‹": 6566,            "à¤®à¥à¤¹": 6567,            "à¤ªà¥à¤°à¤¤à¤¿": 6568,            "à¤¨à¤¿à¤•": 6569,            "à¤µà¤¨": 6570,            "à¥à¤¯à¥‚": 6571,            "à¤°à¤¹à¥€": 6572,            "à¤¤à¥à¤®à¥à¤¹": 6573,            "à¤œà¥ˆà¤¸à¥‡": 6574,            "à¤¿à¤¯à¥‹à¤‚": 6575,            "à¤•à¥à¤¯à¥‹à¤‚": 6576,            "à¤²à¥‹à¤‚": 6577,            "à¤«à¤¼": 6578,            "à¤‚à¤¤à¥à¤°": 6579,            "à¤¹à¥‹à¤¤à¥‡": 6580,            "à¤•à¥à¤¤à¤¿": 6581,            "à¤¤à¥à¤¯": 6582,            "à¤•à¤°à¥": 6583,            "à¤•à¤ˆ": 6584,            "à¤µà¤‚": 6585,            "à¤•à¤¿à¤¨": 6586,            "à¤ªà¥‹": 6587,            "à¤•à¤¾à¤°à¤£": 6588,            "à¥œà¥€": 6589,            "à¤­à¤¿": 6590,            "à¤‡à¤¸à¤•à¥‡": 6591,            "à¤¬à¤°": 6592,            "à¤‰à¤¸à¤•à¥‡": 6593,            "à¤¦à¥à¤µà¤¾à¤°à¤¾": 6594,            "à¤¶à¥‡": 6595,            "à¤•à¥‰": 6596,            "à¤¦à¤¿à¤¨": 6597,            "à¤¨à¥à¤¨": 6598,            "à¥œà¤¾": 6599,            "à¤¸à¥à¤µ": 6600,            "à¤¨à¤¿à¤°à¥": 6601,            "à¤®à¥à¤–": 6602,            "à¤²à¤¿à¤¯à¤¾": 6603,            "à¤Ÿà¤¿": 6604,            "à¤œà¥à¤žà¤¾à¤¨": 6605,            "à¤•à¥à¤¤": 6606,            "à¤¦à¥à¤°": 6607,            "à¤—à¥": 6608,            "à¤•à¥à¤¸": 6609,            "à¤®à¥ˆ": 6610,            "à¤—à¥‹": 6611,            "à¤œà¥‡": 6612,            "à¤Ÿà¥à¤°": 6613,            "à¤®à¤¾à¤°": 6614,            "à¤¤à¥à¤µ": 6615,            "à¤§à¤¾à¤°": 6616,            "à¤­à¤¾à¤µ": 6617,            "à¤•à¤°à¤¤à¤¾": 6618,            "à¤–à¤¿": 6619,            "à¤•à¤‚": 6620,            "à¤šà¤¾à¤¹à¤¿": 6621,            "à¤¯à¤°": 6622,            "à¤ªà¥à¤¤": 6623,            "à¤•à¥‹à¤‚": 6624,            "à¤‚à¤š": 6625,            "à¤œà¥": 6626,            "à¤®à¤¤": 6627,            "à¤…à¤šà¥à¤›": 6628,            "à¤¹à¥à¤ˆ": 6629,            "à¤•à¤­à¥€": 6630,            "à¤²à¥‡à¤•à¤¿à¤¨": 6631,            "à¤­à¥‚": 6632,            "à¤…à¤ªà¤¨à¤¾": 6633,            "à¤¦à¥‚à¤¸": 6634,            "à¤šà¤¾à¤¹à¤¿à¤": 6635,            "à¤¯à¥‚": 6636,            "à¤˜à¤°": 6637,            "à¤¸à¤¬à¤¸à¥‡": 6638,            "à¤®à¥‡à¤°à¥€": 6639,            "à¤¨à¤¾à¤®": 6640,            "à¤¢à¤¼": 6641,            "à¤‚à¤Ÿ": 6642,            "à¥‡à¤‚à¤—à¥‡": 6643,            "à¤¬à¥ˆ": 6644,            "à¤«à¤¾": 6645,            "à¤à¤µà¤‚": 6646,            "à¤¯à¥€": 6647,            "à¤—à¥à¤°": 6648,            "à¤•à¥à¤·à¥‡": 6649,            "à¤†à¤œ": 6650,            "à¤†à¤ªà¤•à¥‹": 6651,            "à¤­à¤¾à¤—": 6652,            "à¤ à¤¾": 6653,            "à¤•à¥ˆ": 6654,            "à¤­à¤¾à¤°à¤¤": 6655,            "à¤‰à¤¨à¤•à¥€": 6656,            "à¤ªà¤¹à¥": 6657,            "à¤¸à¤­à¥€": 6658,            "à¤§à¤¾": 6659,            "à¤£à¤¾": 6660,            "à¤¸à¤¾à¤¨": 6661,            "à¤¹à¥‹à¤—à¤¾": 6662,            "à¤¤à¤¬": 6663,            "à¤¸à¤‚à¤—": 6664,            "à¤ªà¤°à¥": 6665,            "à¤…à¤µ": 6666,            "à¤¤à¤¨à¤¾": 6667,            "à¤—à¤¿": 6668,            "à¤¯à¤¨": 6669,            "à¤¸à¥à¤¥à¤¾": 6670,            "à¤šà¤¿à¤¤": 6671,            "à¤Ÿà¥": 6672,            "à¤›à¤¾": 6673,            "à¤œà¤¾à¤¨à¥‡": 6674,            "à¤•à¥à¤·à¥‡à¤¤à¥à¤°": 6675,            "à¤µà¤¾à¤²à¥€": 6676,            "à¤ªà¥‚à¤°à¥à¤£": 6677,            "à¤¸à¤®à¤¾": 6678,            "à¤•à¤¾à¤°à¥€": 6679,            "[hi]": 6680        },        "merges": [            "t h",            "i n",            "th e",            "a n",            "e r",            "o u",            "r e",            "o n",            "a t",            "e d",            "e n",            "t o",            "in g",            "an d",            "i s",            "a s",            "a l",            "o r",            "o f",            "a r",            "i t",            "e s",            "h e",            "s t",            "l e",            "o m",            "s e",            "b e",            "a d",            "o w",            "l y",            "c h",            "w h",            "th at",            "y ou",            "l i",            "v e",            "a c",            "t i",            "l d",            "m e",            "w as",            "g h",            "i d",            "l l",            "w i",            "en t",            "f or",            "a y",            "r o",            "v er",            "i c",            "h er",            "k e",            "h is",            "n o",            "u t",            "u n",            "i r",            "l o",            "w e",            "r i",            "h a",            "wi th",            "gh t",            "ou t",            "i m",            "i on",            "al l",            "a b",            "on e",            "n e",            "g e",            "ou ld",            "t er",            "m o",            "h ad",            "c e",            "s he",            "g o",            "s h",            "u r",            "a m",            "s o",            "p e",            "m y",            "d e",            "a re",            "b ut",            "om e",            "f r",            "the r",            "f e",            "s u",            "d o",            "c on",            "t e",            "a in",            "er e",            "p o",            "i f",            "the y",            "u s",            "a g",            "t r",            "n ow",            "ou n",            "th is",            "ha ve",            "no t",            "s a",            "i l",            "u p",            "th ing",            "fr om",            "a p",            "h im",            "ac k",            "at ion",            "an t",            "ou r",            "o p",            "li ke",            "u st",            "es s",            "b o",            "o k",            "u l",            "in d",            "e x",            "c om",            "s ome",            "the re",            "er s",            "c o",            "re s",            "m an",            "ar d",            "p l",            "w or",            "w ay",            "ti on",            "f o",            "c a",            "w ere",            "b y",            "at e",            "p ro",            "t ed",            "oun d",            "ow n",            "w ould",            "t s",            "wh at",            "q u",            "al ly",            "i ght",            "c k",            "g r",            "wh en",            "v en",            "c an",            "ou gh",            "in e",            "en d",            "p er",            "ou s",            "o d",            "id e",            "k now",            "t y",            "ver y",            "s i",            "a k",            "wh o",            "ab out",            "i ll",            "the m",            "es t",            "re d",            "y e",            "c ould",            "on g",            "you r",            "the ir",            "e m",            "j ust",            "o ther",            "in to",            "an y",            "wh i",            "u m",            "t w",            "as t",            "d er",            "d id",            "i e",            "be en",            "ac e",            "in k",            "it y",            "b ack",            "t ing",            "b r",            "mo re",            "a ke",            "p p",            "the n",            "s p",            "e l",            "u se",            "b l",            "sa id",            "o ver",            "ge t",            "e n",            "e r",            "c h",            "e i",            "i e",            "u n",            "i ch",            "ei n",            "s t",            "a n",            "t e",            "g e",            "a u",            "i n",            "s ch",            "d er",            "un d",            "d ie",            "d a",            "e s",            "a l",            "d en",            "a r",            "g en",            "z u",            "d e",            "h r",            "o n",            "t en",            "e l",            "o r",            "m i",            "s ie",            "da s",            "a t",            "b e",            "ein e",            "ich t",            "b er",            "l e",            "a ch",            "v er",            "s e",            "au f",            "w i",            "s o",            "t er",            "l ich",            "c k",            "u r",            "n icht",            "m m",            "b en",            "a s",            "w ar",            "r e",            "mi t",            "s ich",            "i g",            "l l",            "au s",            "i st",            "w ie",            "o ch",            "un g",            "an n",            "Ã¼ r",            "h n",            "i hr",            "s a",            "s en",            "t z",            "de m",            "ei t",            "u m",            "h at",            "wi r",            "v on",            "h a",            "s p",            "w ei",            "i er",            "r o",            "h er",            "r a",            "ein en",            "n e",            "v or",            "al s",            "an d",            "al l",            "w as",            "w o",            "r ei",            "st e",            "l ie",            "au ch",            "d u",            "d es",            "k o",            "Ã¼ ber",            "a m",            "b ei",            "h en",            "h m",            "l ei",            "a ber",            "w en",            "h l",            "g er",            "i m",            "u t",            "n ach",            "h e",            "i s",            "b r",            "f t",            "en t",            "i mm",            "j e",            "sch en",            "w er",            "s er",            "a b",            "Ã¤ n",            "m e",            "s ein",            "i t",            "o l",            "ch t",            "f Ã¼r",            "k l",            "f f",            "eine m",            "n en",            "w e",            "j a",            "u s",            "n och",            "hat te",            "t r",            "p f",            "h in",            "d i",            "ch en",            "b l",            "m an",            "r Ã¼",            "ie l",            "s el",            "das s",            "i hn",            "mi r",            "sch l",            "Ã¶ n",            "g an",            "g t",            "ein er",            "st en",            "m ich",            "wen n",            "el l",            "g te",            "in d",            "m al",            "ge l",            "k en",            "n ur",            "mm en",            "f Ã¼",            "er n",            "Ã¶ r",            "un ter",            "f r",            "an der",            "g r",            "i l",            "d ur",            "u ch",            "f e",            "t a",            "m en",            "m ach",            "d och",            "t i",            "dur ch",            "o s",            "g l",            "h al",            "ihr e",            "w Ã¤",            "imm er",            "i hm",            "k ann",            "or t",            "d ann",            "l an",            "tz t",            "o der",            "hr en",            "e t",            "k Ã¶n",            "i ck",            "f a",            "in g",            "i r",            "wie der",            "da ÃŸ",            "m ein",            "f en",            "gan z",            "die se",            "st er",            "da r",            "w a",            "ge s",            "n a",            "f l",            "i gen",            "sch e",            "un gen",            "me hr",            "ÃŸ en",            "o t",            "k on",            "ge w",            "ha ben",            "ge h",            "Ã¤ t",            "s ind",            "d r",            "w el",            "un s",            "v o",            "m a",            "u te",            "sch on",            "b es",            "ge sch",            "b t",            "ch e",            "s on",            "o b",            "l a",            "p p",            "rÃ¼ ck",            "s eine",            "k r",            "f re",            "ei l",            "zu m",            "u l",            "h ier",            "k t",            "i ge",            "sp r",            "k e",            "le ben",            "b st",            "z eit",            "i on",            "g ro",            "den n",            "h o",            "sch a",            "b ar",            "al le",            "ge gen",            "w Ã¼r",            "m Ã¼",            "z e",            "wer den",            "je tzt",            "ko mmen",            "n ie",            "s ei",            "h eit",            "so ll",            "g lei",            "m eine",            "wo ll",            "n er",            "ha be",            "w ur",            "lich en",            "p er",            "as sen",            "n te",            "se hen",            "wir d",            "b is",            "g ar",            "i en",            "m us",            "u ÃŸ",            "Ã¤ r",            "st ell",            "k eit",            "z wei",            "sel bst",            "st a",            "p a",            "sa gte",            "te t",            "k am",            "s sen",            "v iel",            "u g",            "z en",            "h ei",            "m ann",            "wi ll",            "ge b",            "war en",            "Ã¼ ck",            "Ã¤ ch",            "m er",            "r u",            "w or",            "h au",            "ei gen",            "an g",            "we g",            "bl ick",            "f ra",            "all es",            "k a",            "au gen",            "f in",            "lich e",            "t o",            "un ser",            "der n",            "her r",            "n un",            "v ie",            "ch te",            "wo hl",            "f all",            "h t",            "Ã¼ n",            "et was",            "st and",            "en d",            "Ã¤ u",            "e m",            "m Ã¶",            "te l",            "r ie",            "d ich",            "die s",            "h and",            "b in",            "ff en",            "nicht s",            "d an",            "p l",            "hn e",            "ihn en",            "es en",            "die ser",            "fr au",            "an t",            "ar t",            "di r",            "i sch",            "er st",            "glei ch",            "ko mm",            "h Ã¶r",            "ÃŸ e",            "d ig",            "se hr",            "z ei",            "sa m",            "au m",            "h Ã¤t",            "in gen",            "g ut",            "b o",            "m ut",            "ck en",            "kon nte",            "st imm",            "p ro",            "zu r",            "i tz",            "wei l",            "wÃ¼r de",            "f Ã¤",            "kÃ¶n nen",            "k eine",            "f er",            "i schen",            "vo ll",            "ein es",            "se tz",            "z ie",            "de l",            "te te",            "sein er",            "ier en",            "ge st",            "zu rÃ¼ck",            "wur de",            "sch n",            "p r",            "lie ÃŸ",            "t ra",            "m Ã¤",            "gen d",            "f ol",            "i k",            "schl a",            "scha ft",            "at er",            "wei ÃŸ",            "s einen",            "l assen",            "l u",            "und en",            "t eil",            "ne u",            "ier t",            "men schen",            "hm en",            "st r",            "g i",            "sa h",            "ihr en",            "el n",            "wei ter",            "ge hen",            "ig er",            "mach t",            "ta g",            "al so",            "hal ten",            "n is",            "ach t",            "ge ben",            "f or",            "o g",            "n at",            "m ar",            "de t",            "o hne",            "h aus",            "t ro",            "an ge",            "l au",            "sp iel",            "t re",            "sch r",            "in n",            "s u",            "l os",            "mach en",            "hÃ¤t te",            "be g",            "wir k",            "al t",            "g lich",            "te s",            "r icht",            "fre und",            "m o",            "ihr er",            "f el",            "b el",            "so l",            "ein mal",            "e ben",            "h ol",            "h Ã¤n",            "q u",            "ter n",            "h Ã¶",            "sch w",            "re cht",            "wa hr",            "s einem",            "ste hen",            "hl en",            "in s",            "g ing",            "woll te",            "wi ssen",            "ung s",            "al d",            "as s",            "ja hr",            "m or",            "wel t",            "un der",            "zu sa",            "at ion",            "ko pf",            "lan g",            "hin ter",            "at z",            "st ra",            "an gen",            "an k",            "a de",            "gl au",            "f ach",            "hat ten",            "l o",            "f ort",            "ei cht",            "i ff",            "l er",            "m ei",            "diese m",            "k ein",            "f rei",            "fÃ¼ hr",            "vo m",            "e s",            "e n",            "a i",            "o u",            "o n",            "l e",            "d e",            "r e",            "q u",            "a n",            "e r",            "en t",            "e t",            "l a",            "n e",            "i l",            "a r",            "i s",            "ai t",            "t e",            "a u",            "i n",            "qu e",            "i t",            "u r",            "s e",            "l es",            "c h",            "c e",            "m e",            "o r",            "ou r",            "a s",            "p r",            "a v",            "o m",            "ai s",            "u n",            "an t",            "ou s",            "t r",            "t i",            "l u",            "o i",            "e u",            "l le",            "s i",            "p ar",            "d es",            "an s",            "m ent",            "Ã© t",            "es t",            "j e",            "u ne",            "a l",            "p as",            "t re",            "qu i",            "d u",            "r i",            "c on",            "s on",            "c om",            "e lle",            "d Ã©",            "p our",            "d ans",            "l i",            "s a",            "r Ã©",            "t ou",            "v ous",            "d i",            "v i",            "a g",            "a m",            "a t",            "ou v",            "a p",            "ti on",            "m on",            "s ur",            "c i",            "o s",            "p lu",            "s u",            "en d",            "a b",            "Ã¨ re",            "ai n",            "m ais",            "o is",            "r es",            "plu s",            "Ã© e",            "ai ent",            "m p",            "ch e",            "lu i",            "av e",            "Ã©t ait",            "m a",            "s es",            "tou t",            "i r",            "v o",            "a c",            "s er",            "an d",            "f f",            "oi r",            "g r",            "av ait",            "Ã© s",            "m es",            "n ous",            "eu x",            "b i",            "t er",            "c o",            "on s",            "p u",            "c es",            "g e",            "t u",            "le ur",            "pr o",            "d on",            "e ur",            "et te",            "ai re",            "ave c",            "d it",            "t Ã©",            "i e",            "u s",            "il le",            "p er",            "com me",            "c r",            "or t",            "m i",            "e x",            "u x",            "v er",            "m o",            "Ã¨ s",            "v e",            "au x",            "r a",            "j our",            "il s",            "bi en",            "c ou",            "p e",            "que l",            "p eu",            "c ette",            "t es",            "p o",            "in s",            "c u",            "m Ãª",            "s o",            "f ait",            "g u",            "m ar",            "Ãª tre",            "l o",            "it Ã©",            "f r",            "a tion",            "en s",            "b r",            "n i",            "l Ã©",            "d is",            "b le",            "m an",            "n Ã©",            "pu is",            "mÃª me",            "qu es",            "f i",            "e l",            "ag e",            "g ar",            "m oi",            "en ce",            "on t",            "m ain",            "or s",            "au t",            "an ce",            "v en",            "m Ã©",            "s ans",            "e m",            "s Ã©",            "l on",            "h om",            "r o",            "u t",            "c ar",            "ab le",            "i m",            "de r",            "ch er",            "n o",            "vi e",            "au s",            "b e",            "de ux",            "en f",            "o Ã¹",            "t en",            "p h",            "u re",            "te mp",            "p os",            "r ent",            "p Ã©",            "f aire",            "p i",            "tr es",            "Ã§ a",            "an g",            "end re",            "f or",            "p a",            "b on",            "s ou",            "in t",            "pr Ã©",            "s ent",            "t ant",            "n er",            "c er",            "l Ã ",            "l ais",            "pr Ã¨s",            "b re",            "c our",            "p et",            "i on",            "i ne",            "com p",            "l ait",            "tr ouv",            "t a",            "ent re",            "son t",            "de v",            "n u",            "temp s",            "d ou",            "r ait",            "b ou",            "qu and",            "jour s",            "l an",            "er s",            "av oir",            "Ã©t Ã©",            "a le",            "p re",            "f ois",            "or te",            "v Ã©",            "m er",            "n on",            "t ous",            "j us",            "cou p",            "t s",            "hom me",            "Ãª te",            "a d",            "aus si",            "ur s",            "se u",            "or d",            "o b",            "m in",            "g Ã©",            "co re",            "v a",            "v re",            "en core",            "se m",            "i te",            "au tre",            "pr is",            "peu t",            "u e",            "an te",            "m al",            "g n",            "rÃ© p",            "h u",            "si on",            "vo tre",            "di re",            "e z",            "f em",            "leur s",            "m et",            "f in",            "c ri",            "m is",            "t our",            "r ai",            "j am",            "re gar",            "ri en",            "ver s",            "su is",            "p ouv",            "o p",            "v is",            "gr and",            "ant s",            "c or",            "re r",            "ar d",            "c Ã©",            "t ent",            "pr es",            "v ou",            "f a",            "al ors",            "si eur",            "ai ne",            "le r",            "qu oi",            "f on",            "end ant",            "ar ri",            "eu re",            "a prÃ¨s",            "don c",            "it u",            "l Ã¨",            "s ait",            "t oi",            "ch a",            "ai l",            "as se",            "i mp",            "vo y",            "con n",            "p la",            "pet it",            "av ant",            "n om",            "t in",            "don t",            "d a",            "s ous",            "e mp",            "per son",            "el les",            "be au",            "par ti",            "ch o",            "pr it",            "tou jours",            "m en",            "r ais",            "jam ais",            "tr av",            "tion s",            "tr Ã¨s",            "v oi",            "r en",            "y eux",            "f er",            "v oir",            "pre mi",            "c a",            "g ne",            "h eure",            "r ou",            "e ff",            "no tre",            "ment s",            "t on",            "f ais",            "ce la",            "i er",            "rÃ©p on",            "con s",            "ai r",            "Ã´ t",            "p endant",            "i ci",            "tou te",            "j et",            "p ort",            "Ã©t aient",            "p en",            "h Ã©",            "au tres",            "p Ã¨re",            "o c",            "quel ques",            "i que",            "l is",            "fem me",            "j ou",            "te ur",            "mon de",            "u se",            "n es",            "d re",            "a ff",            "r ap",            "par t",            "le ment",            "c la",            "f ut",            "quel que",            "pr endre",            "r Ãª",            "ai lle",            "s ais",            "ch es",            "le t",            "ch ar",            "Ã¨ res",            "ent s",            "b er",            "g er",            "mo ins",            "e au",            "a Ã®",            "j eu",            "h eur",            "Ã© es",            "tr i",            "po int",            "m om",            "v ent",            "n ouv",            "gr an",            "tr ois",            "s ant",            "tout es",            "con tre",            "Ã¨ rent",            "che z",            "ave z",            "Ã» t",            "a lle",            "at t",            "p au",            "p orte",            "ouv er",            "b ar",            "l it",            "f ort",            "o t",            "as s",            "pr Ã©s",            "cho se",            "v it",            "mon sieur",            "h ab",            "t Ãªte",            "j u",            "te ment",            "c tion",            "v rai",            "la r",            "c et",            "regar d",            "l ant",            "de m",            "s om",            "mom ent",            "il les",            "p le",            "p s",            "b es",            "m Ã¨re",            "c l",            "s our",            "y s",            "tr op",            "en ne",            "jus qu",            "av aient",            "av ais",            "jeu ne",            "de puis",            "person ne",            "f it",            "cer t",            "j o",            "g es",            "ou i",            "r est",            "sem b",            "c ap",            "m at",            "m u",            "lon g",            "fr an",            "f aut",            "it i",            "b li",            "che v",            "pr i",            "ent e",            "ain si",            "ch am",            "l ors",            "c as",            "d o",            "il i",            "b Ã©",            "n os",            "an ge",            "su i",            "r it",            "cr o",            "gu e",            "d e",            "e n",            "e s",            "o s",            "l a",            "e r",            "q u",            "a r",            "a n",            "o n",            "qu e",            "a s",            "o r",            "e l",            "d o",            "a l",            "c i",            "u n",            "r e",            "a b",            "i n",            "t e",            "t o",            "s e",            "d i",            "t r",            "d a",            "c on",            "t a",            "s u",            "m i",            "c o",            "t i",            "l e",            "l os",            "n o",            "l o",            "Ã­ a",            "c u",            "c a",            "s i",            "v i",            "m e",            "p or",            "m o",            "p ar",            "r a",            "r i",            "la s",            "c h",            "r o",            "m a",            "p er",            "Ã³ n",            "m en",            "de s",            "un a",            "m p",            "s o",            "ab a",            "p u",            "d os",            "t u",            "g u",            "er a",            "de l",            "h a",            "m u",            "l i",            "en t",            "m b",            "h ab",            "es t",            "g o",            "p a",
[...]
